<pad>	0
<unk>	0
<s>	0
</s>	0
<|im_start|>	0
<|im_end|>	0
<0x00>	0
<0x01>	0
<0x02>	0
<0x03>	0
<0x04>	0
<0x05>	0
<0x06>	0
<0x07>	0
<0x08>	0
<0x09>	0
<0x0A>	0
<0x0B>	0
<0x0C>	0
<0x0D>	0
<0x0E>	0
<0x0F>	0
<0x10>	0
<0x11>	0
<0x12>	0
<0x13>	0
<0x14>	0
<0x15>	0
<0x16>	0
<0x17>	0
<0x18>	0
<0x19>	0
<0x1A>	0
<0x1B>	0
<0x1C>	0
<0x1D>	0
<0x1E>	0
<0x1F>	0
<0x20>	0
<0x21>	0
<0x22>	0
<0x23>	0
<0x24>	0
<0x25>	0
<0x26>	0
<0x27>	0
<0x28>	0
<0x29>	0
<0x2A>	0
<0x2B>	0
<0x2C>	0
<0x2D>	0
<0x2E>	0
<0x2F>	0
<0x30>	0
<0x31>	0
<0x32>	0
<0x33>	0
<0x34>	0
<0x35>	0
<0x36>	0
<0x37>	0
<0x38>	0
<0x39>	0
<0x3A>	0
<0x3B>	0
<0x3C>	0
<0x3D>	0
<0x3E>	0
<0x3F>	0
<0x40>	0
<0x41>	0
<0x42>	0
<0x43>	0
<0x44>	0
<0x45>	0
<0x46>	0
<0x47>	0
<0x48>	0
<0x49>	0
<0x4A>	0
<0x4B>	0
<0x4C>	0
<0x4D>	0
<0x4E>	0
<0x4F>	0
<0x50>	0
<0x51>	0
<0x52>	0
<0x53>	0
<0x54>	0
<0x55>	0
<0x56>	0
<0x57>	0
<0x58>	0
<0x59>	0
<0x5A>	0
<0x5B>	0
<0x5C>	0
<0x5D>	0
<0x5E>	0
<0x5F>	0
<0x60>	0
<0x61>	0
<0x62>	0
<0x63>	0
<0x64>	0
<0x65>	0
<0x66>	0
<0x67>	0
<0x68>	0
<0x69>	0
<0x6A>	0
<0x6B>	0
<0x6C>	0
<0x6D>	0
<0x6E>	0
<0x6F>	0
<0x70>	0
<0x71>	0
<0x72>	0
<0x73>	0
<0x74>	0
<0x75>	0
<0x76>	0
<0x77>	0
<0x78>	0
<0x79>	0
<0x7A>	0
<0x7B>	0
<0x7C>	0
<0x7D>	0
<0x7E>	0
<0x7F>	0
<0x80>	0
<0x81>	0
<0x82>	0
<0x83>	0
<0x84>	0
<0x85>	0
<0x86>	0
<0x87>	0
<0x88>	0
<0x89>	0
<0x8A>	0
<0x8B>	0
<0x8C>	0
<0x8D>	0
<0x8E>	0
<0x8F>	0
<0x90>	0
<0x91>	0
<0x92>	0
<0x93>	0
<0x94>	0
<0x95>	0
<0x96>	0
<0x97>	0
<0x98>	0
<0x99>	0
<0x9A>	0
<0x9B>	0
<0x9C>	0
<0x9D>	0
<0x9E>	0
<0x9F>	0
<0xA0>	0
<0xA1>	0
<0xA2>	0
<0xA3>	0
<0xA4>	0
<0xA5>	0
<0xA6>	0
<0xA7>	0
<0xA8>	0
<0xA9>	0
<0xAA>	0
<0xAB>	0
<0xAC>	0
<0xAD>	0
<0xAE>	0
<0xAF>	0
<0xB0>	0
<0xB1>	0
<0xB2>	0
<0xB3>	0
<0xB4>	0
<0xB5>	0
<0xB6>	0
<0xB7>	0
<0xB8>	0
<0xB9>	0
<0xBA>	0
<0xBB>	0
<0xBC>	0
<0xBD>	0
<0xBE>	0
<0xBF>	0
<0xC0>	0
<0xC1>	0
<0xC2>	0
<0xC3>	0
<0xC4>	0
<0xC5>	0
<0xC6>	0
<0xC7>	0
<0xC8>	0
<0xC9>	0
<0xCA>	0
<0xCB>	0
<0xCC>	0
<0xCD>	0
<0xCE>	0
<0xCF>	0
<0xD0>	0
<0xD1>	0
<0xD2>	0
<0xD3>	0
<0xD4>	0
<0xD5>	0
<0xD6>	0
<0xD7>	0
<0xD8>	0
<0xD9>	0
<0xDA>	0
<0xDB>	0
<0xDC>	0
<0xDD>	0
<0xDE>	0
<0xDF>	0
<0xE0>	0
<0xE1>	0
<0xE2>	0
<0xE3>	0
<0xE4>	0
<0xE5>	0
<0xE6>	0
<0xE7>	0
<0xE8>	0
<0xE9>	0
<0xEA>	0
<0xEB>	0
<0xEC>	0
<0xED>	0
<0xEE>	0
<0xEF>	0
<0xF0>	0
<0xF1>	0
<0xF2>	0
<0xF3>	0
<0xF4>	0
<0xF5>	0
<0xF6>	0
<0xF7>	0
<0xF8>	0
<0xF9>	0
<0xFA>	0
<0xFB>	0
<0xFC>	0
<0xFD>	0
<0xFE>	0
<0xFF>	0
▁t	-0
▁a	-1
he	-2
in	-3
▁the	-4
er	-5
st	-6
on	-7
re	-8
at	-9
▁c	-10
▁an	-11
en	-12
an	-13
or	-14
▁s	-15
it	-16
ou	-17
le	-18
▁w	-19
▁f	-20
ing	-21
▁to	-22
ion	-23
▁p	-24
al	-25
▁and	-26
is	-27
▁in	-28
▁o	-29
es	-30
▁m	-31
ar	-32
▁b	-33
ct	-34
▁d	-35
▁of	-36
ed	-37
as	-38
ow	-39
ic	-40
el	-41
▁th	-42
ent	-43
▁e	-44
us	-45
ge	-46
om	-47
▁re	-48
▁is	-49
▁A	-50
iv	-51
▁y	-52
▁T	-53
ol	-54
▁g	-55
▁n	-56
ro	-57
▁l	-58
▁h	-59
▁you	-60
ction	-61
em	-62
str	-63
et	-64
id	-65
ith	-66
▁I	-67
od	-68
im	-69
ch	-70
ation	-71
▁that	-72
il	-73
am	-74
ir	-75
qu	-76
ist	-77
▁U	-78
▁as	-79
▁us	-80
▁for	-81
▁with	-82
ce	-83
▁Us	-84
▁"	-85
if	-86
▁AI	-87
▁can	-88
ant	-89
stru	-90
▁L	-91
▁he	-92
ul	-93
ate	-94
ter	-95
age	-96
▁are	-97
struction	-98
yst	-99
ut	-100
ystem	-101
▁st	-102
ple	-103
▁S	-104
▁pro	-105
▁le	-106
▁User	-107
um	-108
▁ex	-109
▁be	-110
ig	-111
▁The	-112
ot	-113
structions	-114
un	-115
ust	-116
ra	-117
system	-118
ly	-119
ers	-120
est	-121
low	-122
▁on	-123
ve	-124
ur	-125
▁1	-126
pl	-127
--	-128
▁it	-129
▁C	-130
▁=	-131
▁their	-132
sist	-133
lp	-134
▁M	-135
ab	-136
▁help	-137
▁v	-138
sw	-139
▁con	-140
▁wh	-141
▁Y	-142
sistant	-143
▁In	-144
king	-145
ang	-146
ep	-147
▁com	-148
▁fol	-149
▁or	-150
ain	-151
se	-152
▁follow	-153
▁answ	-154
▁You	-155
▁giv	-156
ay	-157
▁P	-158
▁al	-159
ure	-160
▁answer	-161
ke	-162
▁ne	-163
quest	-164
art	-165
ld	-166
angu	-167
``	-168
ask	-169
pe	-170
her	-171
ad	-172
▁W	-173
anguage	-174
ri	-175
▁let	-176
ver	-177
▁given	-178
out	-179
▁H	-180
ess	-181
▁we	-182
▁-	-183
▁task	-184
▁2	-185
▁|	-186
ive	-187
odel	-188
ill	-189
▁de	-190
and	-191
ile	-192
arge	-193
ore	-194
▁must	-195
ide	-196
ment	-197
The	-198
oun	-199
▁letter	-200
▁r	-201
ity	-202
▁su	-203
▁ch	-204
▁bel	-205
▁dat	-206
th	-207
▁instructions	-208
▁E	-209
ach	-210
▁sh	-211
▁se	-212
ord	-213
able	-214
▁en	-215
pt	-216
ies	-217
▁F	-218
ine	-219
▁tal	-220
iz	-221
▁request	-222
▁below	-223
user	-224
▁your	-225
igh	-226
for	-227
res	-228
▁Language	-229
▁im	-230
▁Th	-231
▁Model	-232
▁(	-233
assistant	-234
▁Instructions	-235
rom	-236
ould	-237
ac	-238
▁talking	-239
ence	-240
▁Large	-241
ition	-242
oc	-243
ud	-244
▁by	-245
ect	-246
ort	-247
form	-248
ode	-249
▁3	-250
▁use	-251
▁<	-252
▁ha	-253
ind	-254
▁data	-255
▁ad	-256
act	-257
▁will	-258
pp	-259
▁me	-260
os	-261
ample	-262
▁G	-263
▁un	-264
▁this	-265
▁int	-266
ult	-267
▁B	-268
du	-269
▁inc	-270
ame	-271
----	-272
umb	-273
ial	-274
▁This	-275
▁code	-276
▁D	-277
▁from	-278
ther	-279
ight	-280
▁prov	-281
▁te	-282
op	-283
ag	-284
",	-285
ase	-286
▁step	-287
▁have	-288
all	-289
our	-290
end	-291
og	-292
ical	-293
per	-294
▁pl	-295
▁R	-296
▁assistant	-297
put	-298
▁need	-299
▁{	-300
▁cre	-301
▁out	-302
```	-303
▁O	-304
▁numb	-305
▁```	-306
▁using	-307
▁j	-308
fer	-309
ify	-310
ue	-311
▁imp	-312
ome	-313
der	-314
plain	-315
▁5	-316
xt	-317
00	-318
▁res	-319
cc	-320
ich	-321
▁4	-322
are	-323
▁ar	-324
ime	-325
▁each	-326
▁`	-327
▁used	-328
▁how	-329
rit	-330
▁cl	-331
▁ma	-332
ib	-333
ans	-334
▁N	-335
int	-336
▁comp	-337
▁}	-338
ast	-339
▁Wh	-340
ations	-341
ice	-342
▁cont	-343
so	-344
ff	-345
▁example	-346
▁at	-347
ount	-348
up	-349
ell	-350
▁which	-351
ance	-352
▁word	-353
ong	-354
lud	-355
▁des	-356
▁ab	-357
av	-358
▁find	-359
ink	-360
▁pr	-361
▁form	-362
▁k	-363
▁Ex	-364
▁fun	-365
▁other	-366
ful	-367
ions	-368
ary	-369
▁+	-370
ere	-371
▁spe	-372
▁part	-373
ific	-374
ass	-375
ie	-376
oo	-377
▁det	-378
▁per	-379
);	-380
▁sent	-381
▁not	-382
▁J	-383
cri	-384
ated	-385
ost	-386
ia	-387
▁tr	-388
▁inform	-389
ign	-390
▁such	-391
ener	-392
ces	-393
ines	-394
▁St	-395
vel	-396
ents	-397
▁'	-398
▁if	-399
▁add	-400
▁col	-401
ally	-402
▁number	-403
▁has	-404
▁includ	-405
▁val	-406
▁li	-407
ound	-408
▁should	-409
les	-410
▁information	-411
▁def	-412
▁wor	-413
ject	-414
ack	-415
▁dif	-416
▁To	-417
▁any	-418
▁str	-419
red	-420
▁also	-421
▁sc	-422
▁into	-423
ard	-424
▁so	-425
▁provide	-426
irst	-427
▁fe	-428
▁function	-429
▁pe	-430
ip	-431
ous	-432
gr	-433
ak	-434
▁$	-435
▁list	-436
▁tra	-437
ress	-438
▁acc	-439
▁explain	-440
▁whe	-441
▁dis	-442
▁up	-443
ature	-444
te	-445
▁#	-446
now	-447
ize	-448
▁sol	-449
ors	-450
ased	-451
▁1.	-452
aly	-453
▁Here	-454
cess	-455
▁em	-456
ap	-457
▁like	-458
ear	-459
ory	-460
":	-461
▁new	-462
▁differ	-463
ople	-464
▁gu	-465
▁more	-466
▁create	-467
get	-468
▁2.	-469
ari	-470
▁some	-471
ates	-472
▁who	-473
▁user	-474
▁cal	-475
ace	-476
▁people	-477
gh	-478
▁spec	-479
▁they	-480
ating	-481
ree	-482
▁its	-483
rou	-484
▁comm	-485
▁steps	-486
▁tw	-487
▁quest	-488
▁answering	-489
ely	-490
▁gener	-491
▁It	-492
▁qu	-493
ren	-494
▁3.	-495
▁0	-496
▁go	-497
ning	-498
▁all	-499
▁was	-500
ets	-501
rect	-502
▁cor	-503
▁ke	-504
▁first	-505
▁sentence	-506
▁time	-507
▁/	-508
etw	-509
one	-510
▁[	-511
▁ret	-512
▁inter	-513
led	-514
ater	-515
▁one	-516
▁While	-517
▁sim	-518
arch	-519
▁sp	-520
▁under	-521
ck	-522
▁them	-523
ub	-524
ns	-525
▁know	-526
ustom	-527
ob	-528
▁analy	-529
ual	-530
▁table	-531
ne	-532
ose	-533
▁produ	-534
▁following	-535
()	-536
idel	-537
cul	-538
ph	-539
con	-540
▁provid	-541
ark	-542
idelines	-543
lect	-544
erm	-545
ient	-546
▁do	-547
▁pre	-548
▁two	-549
▁6	-550
▁man	-551
ail	-552
▁rec	-553
▁vari	-554
▁defin	-555
▁met	-556
▁comple	-557
▁ev	-558
pon	-559
--------	-560
dition	-561
gor	-562
▁Part	-563
</	-564
▁question	-565
stand	-566
ens	-567
▁language	-568
ov	-569
▁think	-570
ook	-571
▁guidelines	-572
ange	-573
▁different	-574
("	-575
▁helps	-576
ays	-577
▁custom	-578
▁ph	-579
chn	-580
▁We	-581
▁For	-582
▁make	-583
▁what	-584
its	-585
▁mult	-586
▁key	-587
▁these	-588
be	-589
).	-590
ry	-591
▁Pro	-592
▁How	-593
▁would	-594
▁but	-595
▁\	-596
erson	-597
▁definition	-598
ities	-599
iqu	-600
▁ty	-601
▁just	-602
▁pos	-603
▁trans	-604
▁id	-605
▁over	-606
by	-607
▁4.	-608
▁descri	-609
▁about	-610
▁understand	-611
iled	-612
▁app	-613
▁ro	-614
ake	-615
ings	-616
ood	-617
▁di	-618
▁Usage	-619
plan	-620
▁instruction	-621
▁lear	-622
gram	-623
ility	-624
▁year	-625
ray	-626
▁ind	-627
▁techn	-628
▁eff	-629
ailed	-630
ments	-631
▁sm	-632
▁import	-633
▁input	-634
eng	-635
ative	-636
▁10	-637
urn	-638
ption	-639
▁ob	-640
een	-641
▁crit	-642
▁char	-643
ite	-644
▁detailed	-645
ef	-646
▁Ad	-647
▁Your	-648
iven	-649
entify	-650
▁words	-651
ics	-652
▁perform	-653
etween	-654
planation	-655
▁give	-656
cy	-657
oy	-658
▁ap	-659
▁show	-660
▁program	-661
▁between	-662
▁system	-663
▁class	-664
ithm	-665
▁output	-666
ues	-667
▁dec	-668
▁work	-669
ular	-670
aus	-671
▁calcul	-672
▁inv	-673
qui	-674
▁based	-675
▁then	-676
▁7	-677
rough	-678
eria	-679
fully	-680
▁process	-681
yth	-682
▁multi	-683
▁//	-684
▁ser	-685
als	-686
▁product	-687
ft	-688
gorithm	-689
▁An	-690
▁equ	-691
▁model	-692
▁search	-693
▁correct	-694
▁could	-695
▁fa	-696
ract	-697
ble	-698
olog	-699
▁ext	-700
▁rel	-701
."	-702
row	-703
ience	-704
▁result	-705
ish	-706
▁requi	-707
▁Can	-708
▁criteria	-709
▁sum	-710
ural	-711
ution	-712
▁while	-713
▁person	-714
velop	-715
▁po	-716
▁rep	-717
▁algorithm	-718
▁cons	-719
gy	-720
ible	-721
▁charact	-722
ert	-723
▁set	-724
',	-725
ick	-726
▁x	-727
▁format	-728
▁text	-729
▁generate	-730
▁solve	-731
ym	-732
▁sub	-733
ences	-734
ized	-735
▁through	-736
▁5.	-737
▁bre	-738
▁Explain	-739
▁five	-740
ery	-741
oth	-742
▁include	-743
▁meets	-744
▁Given	-745
ata	-746
ices	-747
▁8	-748
fore	-749
▁justify	-750
▁faith	-751
▁why	-752
▁numbers	-753
▁*	-754
▁pat	-755
▁act	-756
▁bec	-757
▁well	-758
redi	-759
▁faithfully	-760
ove	-761
▁ele	-762
▁mat	-763
▁Step	-764
▁bl	-765
sis	-766
ower	-767
▁may	-768
▁am	-769
▁where	-770
ential	-771
▁count	-772
ise	-773
▁specific	-774
alth	-775
▁che	-776
▁gre	-777
ython	-778
▁value	-779
side	-780
▁respon	-781
▁exper	-782
▁name	-783
ss	-784
▁learning	-785
▁Use	-786
▁print	-787
▁web	-788
ex	-789
ild	-790
▁get	-791
resent	-792
▁than	-793
hod	-794
▁sa	-795
▁V	-796
▁Prov	-797
▁provides	-798
▁string	-799
ages	-800
▁multiple	-801
ds	-802
▁exp	-803
▁car	-804
▁develop	-805
▁co	-806
oice	-807
▁three	-808
▁those	-809
),	-810
step	-811
▁Provide	-812
ML	-813
▁return	-814
▁array	-815
line	-816
ause	-817
rite	-818
▁Con	-819
▁identify	-820
▁sk	-821
▁don	-822
▁there	-823
▁simple	-824
andom	-825
▁Sure	-826
ement	-827
▁If	-828
ique	-829
▁method	-830
name	-831
ctions	-832
ting	-833
ring	-834
▁reg	-835
▁impro	-836
struct	-837
▁way	-838
▁opt	-839
▁high	-840
▁redu	-841
▁What	-842
anc	-843
▁stat	-844
plic	-845
ork	-846
ivid	-847
▁mod	-848
▁fact	-849
▁object	-850
▁loc	-851
▁long	-852
▁customer	-853
▁med	-854
▁asking	-855
▁pop	-856
▁ens	-857
▁fl	-858
▁play	-859
▁start	-860
▁vis	-861
▁contain	-862
▁health	-863
▁rem	-864
▁most	-865
ider	-866
tal	-867
word	-868
ze	-869
▁Ch	-870
ru	-871
hes	-872
ergy	-873
li	-874
▁impact	-875
▁ever	-876
ec	-877
ys	-878
▁There	-879
▁order	-880
".	-881
▁feature	-882
▁small	-883
▁cur	-884
yn	-885
own	-886
▁9	-887
▁i	-888
▁old	-889
▁sign	-890
▁end	-891
▁describe	-892
▁main	-893
▁mean	-894
▁soc	-895
▁want	-896
▁only	-897
uring	-898
▁outside	-899
gan	-900
▁Fin	-901
▁parts	-902
iss	-903
▁att	-904
▁ass	-905
▁his	-906
olv	-907
other	-908
")	-909
▁effect	-910
▁K	-911
▁Then	-912
ten	-913
ily	-914
iew	-915
cl	-916
mat	-917
▁file	-918
ext	-919
▁design	-920
ength	-921
▁addition	-922
▁20	-923
▁ra	-924
▁total	-925
com	-926
plement	-927
ied	-928
raph	-929
▁analysis	-930
▁energy	-931
pect	-932
eg	-933
▁Addition	-934
▁water	-935
▁including	-936
▁fi	-937
▁bu	-938
itive	-939
▁her	-940
▁when	-941
▁appro	-942
ll	-943
▁serv	-944
▁mark	-945
ts	-946
▁hand	-947
▁type	-948
▁our	-949
▁Additionally	-950
iness	-951
▁pot	-952
▁Explanation	-953
▁store	-954
▁stud	-955
gest	-956
ava	-957
ula	-958
▁el	-959
▁ve	-960
▁break	-961
▁allow	-962
▁min	-963
▁calculate	-964
ures	-965
lease	-966
ency	-967
▁values	-968
▁Python	-969
ality	-970
ax	-971
iron	-972
ness	-973
▁colum	-974
ock	-975
▁world	-976
▁unique	-977
ology	-978
▁both	-979
▁mov	-980
achine	-981
▁Finally	-982
▁item	-983
▁Think	-984
▁fin	-985
ON	-986
▁variable	-987
▁character	-988
lic	-989
ically	-990
▁determ	-991
▁art	-992
▁answers	-993
▁</	-994
▁read	-995
iment	-996
ware	-997
ization	-998
ric	-999
▁job	-1000
▁They	-1001
▁sample	-1002
0,	-1003
ade	-1004
ibr	-1005
ives	-1006
▁par	-1007
▁been	-1008
sible	-1009
▁top	-1010
▁eng	-1011
▁choice	-1012
▁rev	-1013
▁plan	-1014
="	-1015
pr	-1016
pport	-1017
▁Cre	-1018
▁On	-1019
▁tem	-1020
▁gr	-1021
▁ent	-1022
ability	-1023
▁incre	-1024
viron	-1025
ious	-1026
ploy	-1027
▁commun	-1028
imal	-1029
▁every	-1030
▁adv	-1031
▁bus	-1032
▁implement	-1033
▁complete	-1034
ather	-1035
ases	-1036
▁typ	-1037
mer	-1038
▁formula	-1039
ivity	-1040
ife	-1041
▁sur	-1042
▁random	-1043
rong	-1044
uch	-1045
any	-1046
rent	-1047
riend	-1048
▁complex	-1049
▁sort	-1050
▁had	-1051
abase	-1052
roup	-1053
▁En	-1054
ense	-1055
▁1:	-1056
▁As	-1057
▁ensure	-1058
In	-1059
St	-1060
play	-1061
zz	-1062
aking	-1063
))	-1064
▁might	-1065
SON	-1066
tern	-1067
▁train	-1068
▁0.	-1069
▁take	-1070
pro	-1071
to	-1072
ways	-1073
ividual	-1074
1,	-1075
▁wrong	-1076
▁because	-1077
▁point	-1078
co	-1079
hip	-1080
ever	-1081
▁level	-1082
▁environ	-1083
TML	-1084
ming	-1085
itle	-1086
▁pur	-1087
▁potential	-1088
cript	-1089
▁back	-1090
▁cost	-1091
▁pol	-1092
hen	-1093
▁common	-1094
▁struct	-1095
▁access	-1096
▁aut	-1097
▁lo	-1098
ian	-1099
▁response	-1100
▁2:	-1101
▁many	-1102
ources	-1103
▁av	-1104
▁hum	-1105
▁no	-1106
▁color	-1107
old	-1108
ited	-1109
▁my	-1110
▁large	-1111
▁meaning	-1112
▁consider	-1113
ath	-1114
▁incor	-1115
▁individual	-1116
▁inst	-1117
▁follows	-1118
▁Create	-1119
text	-1120
▁she	-1121
▁come	-1122
▁libr	-1123
ars	-1124
▁database	-1125
▁machine	-1126
▁day	-1127
▁improve	-1128
▁much	-1129
▁Re	-1130
▁signific	-1131
QL	-1132
▁eas	-1133
omm	-1134
▁chall	-1135
▁6.	-1136
▁dep	-1137
▁features	-1138
▁line	-1139
▁prom	-1140
ody	-1141
uter	-1142
▁br	-1143
▁market	-1144
blem	-1145
▁nam	-1146
▁group	-1147
▁always	-1148
▁lead	-1149
ument	-1150
ber	-1151
▁mess	-1152
▁dist	-1153
▁term	-1154
ons	-1155
▁Java	-1156
▁webs	-1157
▁means	-1158
▁business	-1159
ute	-1160
port	-1161
▁involv	-1162
ression	-1163
▁JSON	-1164
▁Un	-1165
▁here	-1166
▁require	-1167
▁social	-1168
▁sug	-1169
▁power	-1170
apt	-1171
uzz	-1172
ulation	-1173
wn	-1174
▁ag	-1175
ending	-1176
▁analyze	-1177
atural	-1178
▁environment	-1179
perature	-1180
ateg	-1181
ublic	-1182
elf	-1183
rib	-1184
rain	-1185
els	-1186
ety	-1187
▁effic	-1188
000	-1189
akes	-1190
uc	-1191
ough	-1192
▁another	-1193
▁team	-1194
▁down	-1195
▁HTML	-1196
▁problem	-1197
err	-1198
▁story	-1199
▁goal	-1200
▁range	-1201
ols	-1202
ward	-1203
data	-1204
por	-1205
▁personal	-1206
▁hist	-1207
▁test	-1208
▁comb	-1209
ote	-1210
^2	-1211
ccess	-1212
▁fil	-1213
vert	-1214
▁food	-1215
▁select	-1216
▁predi	-1217
▁sec	-1218
ox	-1219
▁reduce	-1220
▁case	-1221
▁secon	-1222
rem	-1223
ified	-1224
▁ed	-1225
▁check	-1226
▁book	-1227
▁additional	-1228
('	-1229
▁various	-1230
▁mem	-1231
▁%	-1232
▁experience	-1233
▁cle	-1234
10	-1235
▁mon	-1236
ills	-1237
▁current	-1238
▁explanation	-1239
▁Therefore	-1240
▁He	-1241
sc	-1242
▁fam	-1243
verage	-1244
▁factors	-1245
▁organ	-1246
▁ac	-1247
▁num	-1248
▁possible	-1249
ision	-1250
2,	-1251
ries	-1252
▁represent	-1253
chie	-1254
▁However	-1255
enef	-1256
▁same	-1257
fter	-1258
▁uses	-1259
▁puzz	-1260
▁computer	-1261
ner	-1262
▁By	-1263
val	-1264
tr	-1265
▁==	-1266
▁made	-1267
inc	-1268
▁were	-1269
▁phr	-1270
ants	-1271
▁determine	-1272
hed	-1273
▁applic	-1274
▁oper	-1275
▁important	-1276
__	-1277
▁soft	-1278
ee	-1279
▁X	-1280
▁div	-1281
vent	-1282
▁transl	-1283
read	-1284
ertain	-1285
▁beh	-1286
▁achie	-1287
▁even	-1288
++	-1289
▁.	-1290
ights	-1291
▁SQL	-1292
ledge	-1293
▁found	-1294
ty	-1295
▁&	-1296
omet	-1297
gin	-1298
ination	-1299
ding	-1300
fl	-1301
20	-1302
ism	-1303
▁3:	-1304
▁public	-1305
▁enc	-1306
▁ref	-1307
▁dev	-1308
▁ins	-1309
▁website	-1310
▁Once	-1311
tain	-1312
▁temperature	-1313
▁ver	-1314
quence	-1315
▁off	-1316
▁So	-1317
▁<<	-1318
▁technology	-1319
▁elements	-1320
ving	-1321
iques	-1322
ire	-1323
▁being	-1324
▁performance	-1325
ml	-1326
aut	-1327
▁These	-1328
▁known	-1329
▁life	-1330
ix	-1331
▁19	-1332
▁knowledge	-1333
td	-1334
oh	-1335
duct	-1336
▁One	-1337
▁techniques	-1338
▁equation	-1339
ively	-1340
ift	-1341
▁amount	-1342
▁significant	-1343
gether	-1344
▁dig	-1345
ps	-1346
ational	-1347
acher	-1348
▁partic	-1349
etwork	-1350
AT	-1351
▁fiel	-1352
▁log	-1353
▁cat	-1354
cept	-1355
ator	-1356
▁cult	-1357
ced	-1358
▁game	-1359
io	-1360
▁employ	-1361
▁see	-1362
▁puzzle	-1363
ron	-1364
▁grow	-1365
▁benef	-1366
▁message	-1367
▁natural	-1368
pen	-1369
▁company	-1370
▁fre	-1371
ht	-1372
-1	-1373
▁dem	-1374
ocument	-1375
▁phys	-1376
▁Please	-1377
▁called	-1378
ional	-1379
hor	-1380
▁row	-1381
▁chang	-1382
▁mus	-1383
▁condition	-1384
▁datas	-1385
▁column	-1386
▁ide	-1387
▁second	-1388
▁communic	-1389
):	-1390
ason	-1391
▁area	-1392
▁gl	-1393
▁extrem	-1394
5,	-1395
▁dr	-1396
erc	-1397
▁display	-1398
son	-1399
igin	-1400
▁success	-1401
▁together	-1402
lev	-1403
▁length	-1404
erse	-1405
▁support	-1406
▁real	-1407
imes	-1408
----------------	-1409
back	-1410
▁tri	-1411
▁suggest	-1412
▁pa	-1413
ital	-1414
ately	-1415
▁100	-1416
let	-1417
▁extract	-1418
▁Des	-1419
olution	-1420
ior	-1421
ier	-1422
▁page	-1423
▁helpful	-1424
▁software	-1425
▁does	-1426
▁often	-1427
hing	-1428
▁light	-1429
▁good	-1430
ird	-1431
▁query	-1432
▁const	-1433
▁run	-1434
▁teacher	-1435
ank	-1436
dustr	-1437
▁score	-1438
▁structure	-1439
▁meas	-1440
gg	-1441
▁Com	-1442
▁users	-1443
▁items	-1444
▁characters	-1445
▁sentiment	-1446
▁own	-1447
▁else	-1448
▁sequence	-1449
▁involves	-1450
▁during	-1451
▁Over	-1452
▁making	-1453
▁emot	-1454
ipp	-1455
▁prime	-1456
▁tre	-1457
cel	-1458
▁before	-1459
▁element	-1460
oose	-1461
▁popular	-1462
ved	-1463
▁friend	-1464
▁provided	-1465
▁proper	-1466
▁prof	-1467
▁Im	-1468
▁tasks	-1469
▁7.	-1470
conom	-1471
we	-1472
string	-1473
▁positive	-1474
ted	-1475
rie	-1476
▁skills	-1477
▁feel	-1478
▁content	-1479
▁rese	-1480
▁pass	-1481
ommend	-1482
▁needs	-1483
],	-1484
▁aud	-1485
▁network	-1486
▁sn	-1487
▁hig	-1488
▁err	-1489
▁writ	-1490
▁Sc	-1491
ouble	-1492
ogn	-1493
▁optim	-1494
pos	-1495
aste	-1496
▁customers	-1497
lab	-1498
▁12	-1499
▁performing	-1500
▁squ	-1501
terns	-1502
ually	-1503
▁prot	-1504
utes	-1505
";	-1506
▁algorithms	-1507
▁includes	-1508
▁results	-1509
ling	-1510
▁integ	-1511
▁expl	-1512
count	-1513
▁conc	-1514
ilar	-1515
▁present	-1516
▁fore	-1517
▁best	-1518
▁interest	-1519
▁elect	-1520
ger	-1521
▁around	-1522
▁contains	-1523
til	-1524
▁library	-1525
▁verb	-1526
▁change	-1527
cho	-1528
ER	-1529
▁Hel	-1530
ouse	-1531
oid	-1532
▁patterns	-1533
ead	-1534
ffic	-1535
▁ing	-1536
the	-1537
ale	-1538
▁head	-1539
▁extremely	-1540
▁industr	-1541
new	-1542
▁average	-1543
▁takes	-1544
cing	-1545
aterial	-1546
▁statement	-1547
ource	-1548
ew	-1549
▁without	-1550
▁syn	-1551
▁anim	-1552
ream	-1553
agement	-1554
▁incorpor	-1555
▁build	-1556
▁origin	-1557
▁Al	-1558
▁sl	-1559
▁Gener	-1560
▁cent	-1561
action	-1562
▁command	-1563
▁least	-1564
▁challeng	-1565
▁summ	-1566
▁Id	-1567
▁sun	-1568
▁development	-1569
();	-1570
redients	-1571
▁recommend	-1572
▁Go	-1573
onym	-1574
day	-1575
ctor	-1576
▁del	-1577
▁la	-1578
▁products	-1579
▁loop	-1580
▁prefer	-1581
▁options	-1582
▁less	-1583
▁types	-1584
▁dataset	-1585
ffect	-1586
cessary	-1587
ser	-1588
▁sever	-1589
▁cell	-1590
xim	-1591
▁Help	-1592
▁visual	-1593
respon	-1594
▁media	-1595
▁activ	-1596
time	-1597
▁behav	-1598
orm	-1599
oon	-1600
lish	-1601
▁project	-1602
etter	-1603
AB	-1604
▁cap	-1605
words	-1606
ope	-1607
▁look	-1608
date	-1609
ification	-1610
▁sym	-1611
▁phrase	-1612
▁city	-1613
▁predict	-1614
▁Def	-1615
idd	-1616
▁four	-1617
▁Overall	-1618
▁next	-1619
,"	-1620
app	-1621
▁#:	-1622
yle	-1623
▁retrie	-1624
▁Cl	-1625
▁:	-1626
▁Let	-1627
0.	-1628
bot	-1629
ura	-1630
ins	-1631
PI	-1632
▁contin	-1633
▁frequ	-1634
▁within	-1635
imate	-1636
▁air	-1637
not	-1638
▁size	-1639
▁account	-1640
▁ways	-1641
▁able	-1642
▁sound	-1643
di	-1644
▁targe	-1645
nect	-1646
▁happ	-1647
▁letters	-1648
▁until	-1649
ape	-1650
▁research	-1651
ohn	-1652
▁arr	-1653
ocus	-1654
▁tag	-1655
1.	-1656
isk	-1657
▁showing	-1658
sole	-1659
place	-1660
▁examples	-1661
izing	-1662
▁translate	-1663
▁Identify	-1664
▁creating	-1665
▁benefits	-1666
">	-1667
ention	-1668
▁allows	-1669
▁relev	-1670
ategor	-1671
▁human	-1672
▁fru	-1673
▁conf	-1674
net	-1675
▁location	-1676
CT	-1677
print	-1678
▁years	-1679
▁write	-1680
arm	-1681
face	-1682
ats	-1683
▁4:	-1684
▁efficient	-1685
ationship	-1686
▁keep	-1687
▁learn	-1688
iving	-1689
ram	-1690
ave	-1691
▁hy	-1692
▁And	-1693
▁>	-1694
▁sure	-1695
icult	-1696
▁econom	-1697
▁},	-1698
▁modify	-1699
3,	-1700
▁appe	-1701
▁Generate	-1702
▁gra	-1703
ared	-1704
()`	-1705
sword	-1706
▁Sample	-1707
▁miss	-1708
']	-1709
ash	-1710
ross	-1711
ince	-1712
here	-1713
▁pract	-1714
ilities	-1715
ug	-1716
▁physical	-1717
▁sat	-1718
▁necessary	-1719
▁1,	-1720
▁right	-1721
▁avail	-1722
▁care	-1723
▁neg	-1724
▁material	-1725
ven	-1726
▁requires	-1727
▁ess	-1728
▁hour	-1729
▁Ar	-1730
▁rate	-1731
▁var	-1732
▁Pl	-1733
rehe	-1734
amp	-1735
bon	-1736
urity	-1737
ken	-1738
▁solution	-1739
▁programming	-1740
▁lim	-1741
urther	-1742
▁stand	-1743
ooking	-1744
▁relationship	-1745
▁great	-1746
assword	-1747
▁questions	-1748
▁15	-1749
aging	-1750
▁focus	-1751
▁service	-1752
icle	-1753
▁last	-1754
▁image	-1755
▁online	-1756
▁better	-1757
Each	-1758
sh	-1759
▁Cal	-1760
')	-1761
▁systems	-1762
▁pack	-1763
▁She	-1764
▁feed	-1765
▁relevant	-1766
izes	-1767
▁several	-1768
ides	-1769
▁behavior	-1770
▁email	-1771
▁try	-1772
▁increase	-1773
▁countries	-1774
ah	-1775
▁knows	-1776
▁home	-1777
▁correspon	-1778
▁individuals	-1779
▁Name	-1780
▁country	-1781
▁place	-1782
LE	-1783
▁Using	-1784
▁population	-1785
cle	-1786
▁<-	-1787
sent	-1788
▁past	-1789
meric	-1790
anced	-1791
▁document	-1792
▁2,	-1793
▁activities	-1794
▁animals	-1795
urns	-1796
▁rest	-1797
▁land	-1798
String	-1799
sp	-1800
arth	-1801
istics	-1802
▁adject	-1803
▁approach	-1804
▁names	-1805
ables	-1806
▁Sp	-1807
▁training	-1808
less	-1809
oad	-1810
▁API	-1811
▁body	-1812
oot	-1813
kes	-1814
▁lab	-1815
rehens	-1816
uss	-1817
▁0;	-1818
ern	-1819
rame	-1820
▁occ	-1821
▁history	-1822
▁processing	-1823
▁Eng	-1824
▁equal	-1825
uture	-1826
▁family	-1827
▁accur	-1828
▁space	-1829
iter	-1830
▁gen	-1831
ograph	-1832
dd	-1833
atform	-1834
▁lay	-1835
cent	-1836
▁purch	-1837
oud	-1838
angle	-1839
▁filter	-1840
▁age	-1841
▁transport	-1842
▁De	-1843
2)	-1844
▁cr	-1845
▁contrib	-1846
▁meet	-1847
oard	-1848
▁dra	-1849
▁Add	-1850
tle	-1851
▁terms	-1852
ond	-1853
▁educ	-1854
rol	-1855
▁points	-1856
lude	-1857
ements	-1858
aces	-1859
▁species	-1860
▁field	-1861
▁tools	-1862
aries	-1863
2.	-1864
");	-1865
▁comprehens	-1866
▁related	-1867
▁somet	-1868
isf	-1869
▁remain	-1870
utions	-1871
▁z	-1872
▁First	-1873
▁true	-1874
ined	-1875
ton	-1876
pri	-1877
▁Sw	-1878
▁Americ	-1879
▁variables	-1880
▁Define	-1881
▁String	-1882
ume	-1883
▁subject	-1884
head	-1885
▁deep	-1886
wards	-1887
▁clear	-1888
"]	-1889
▁event	-1890
Script	-1891
light	-1892
▁changes	-1893
▁Excel	-1894
br	-1895
util	-1896
ories	-1897
set	-1898
▁marketing	-1899
▁ingredients	-1900
▁flow	-1901
---	-1902
ret	-1903
['	-1904
ategory	-1905
▁address	-1906
ustain	-1907
uracy	-1908
▁resources	-1909
ibility	-1910
iver	-1911
LAB	-1912
▁sal	-1913
oss	-1914
ium	-1915
▁adj	-1916
ATLAB	-1917
▁iss	-1918
▁weight	-1919
▁snipp	-1920
vers	-1921
▁after	-1922
▁sources	-1923
▁similar	-1924
▁call	-1925
▁categor	-1926
▁When	-1927
amet	-1928
▁things	-1929
8,	-1930
istic	-1931
▁overall	-1932
▁offer	-1933
▁track	-1934
▁child	-1935
pose	-1936
▁achieve	-1937
▁title	-1938
irt	-1939
▁open	-1940
umber	-1941
▁action	-1942
▁8.	-1943
arr	-1944
▁diff	-1945
▁platform	-1946
▁regular	-1947
▁indic	-1948
▁price	-1949
▁Write	-1950
▁movie	-1951
ma	-1952
▁quick	-1953
▁MATLAB	-1954
▁infl	-1955
▁comput	-1956
▁target	-1957
▁3,	-1958
ances	-1959
▁future	-1960
col	-1961
resents	-1962
uby	-1963
▁final	-1964
▁colors	-1965
oney	-1966
ipe	-1967
joy	-1968
▁square	-1969
▁distance	-1970
ves	-1971
▁above	-1972
▁express	-1973
▁communication	-1974
▁JavaScript	-1975
pec	-1976
▁handle	-1977
▁context	-1978
avor	-1979
fra	-1980
▁audience	-1981
▁sit	-1982
▁poem	-1983
▁ident	-1984
▁levels	-1985
▁nut	-1986
▁special	-1987
num	-1988
▁wind	-1989
▁negative	-1990
itial	-1991
▁sales	-1992
▁Se	-1993
care	-1994
ired	-1995
▁speed	-1996
▁interact	-1997
▁CS	-1998
aur	-1999
ech	-2000
oring	-2001
RO	-2002
▁non	-2003
aring	-2004
▁List	-2005
▁columns	-2006
ont	-2007
ull	-2008
Data	-2009
▁original	-2010
▁expression	-2011
▁sw	-2012
▁low	-2013
▁travel	-2014
▁symb	-2015
▁corresponding	-2016
▁sense	-2017
▁cup	-2018
::	-2019
itud	-2020
▁recogn	-2021
de	-2022
▁snippet	-2023
▁easy	-2024
▁few	-2025
▁comprehensive	-2026
oci	-2027
▁est	-2028
▁concept	-2029
clus	-2030
▁scient	-2031
▁mar	-2032
▁ability	-2033
hemat	-2034
▁engine	-2035
▁(1	-2036
▁disc	-2037
rix	-2038
▁position	-2039
},	-2040
▁pie	-2041
▁feedback	-2042
▁satisf	-2043
ln	-2044
▁conditions	-2045
▁exc	-2046
▁risk	-2047
inary	-2048
ering	-2049
▁growth	-2050
▁students	-2051
oint	-2052
▁sing	-2053
▁tree	-2054
rop	-2055
▁mot	-2056
▁convert	-2057
▁Now	-2058
▁returns	-2059
▁date	-2060
▁applications	-2061
▁appropri	-2062
▁Q	-2063
▁System	-2064
▁invest	-2065
▁something	-2066
▁tradition	-2067
hest	-2068
ember	-2069
▁Ind	-2070
▁carbon	-2071
▁weather	-2072
▁methods	-2073
▁=>	-2074
▁activity	-2075
▁accuracy	-2076
4,	-2077
▁security	-2078
table	-2079
▁left	-2080
▁decision	-2081
▁month	-2082
▁arg	-2083
▁available	-2084
uation	-2085
▁hope	-2086
▁veget	-2087
ik	-2088
(1	-2089
▁affect	-2090
asing	-2091
▁green	-2092
ental	-2093
▁named	-2094
▁represents	-2095
item	-2096
▁XML	-2097
title	-2098
▁review	-2099
▁sustain	-2100
ees	-2101
▁personalized	-2102
▁consum	-2103
`.	-2104
▁beaut	-2105
▁reason	-2106
▁certain	-2107
▁times	-2108
▁again	-2109
▁United	-2110
▁areas	-2111
▁effective	-2112
▁understanding	-2113
inter	-2114
▁ge	-2115
▁strong	-2116
▁strateg	-2117
ists	-2118
▁retrieve	-2119
▁difficult	-2120
▁control	-2121
actions	-2122
▁difference	-2123
▁red	-2124
▁required	-2125
of	-2126
plit	-2127
▁eval	-2128
▁state	-2129
ict	-2130
aves	-2131
▁double	-2132
iod	-2133
▁distr	-2134
▁side	-2135
▁prompt	-2136
▁love	-2137
zing	-2138
▁maxim	-2139
▁vol	-2140
ellig	-2141
▁mathemat	-2142
way	-2143
enge	-2144
fe	-2145
▁industry	-2146
▁appropriate	-2147
▁Sh	-2148
ender	-2149
▁sorted	-2150
ames	-2151
otal	-2152
rel	-2153
▁minutes	-2154
];	-2155
▁Col	-2156
▁scen	-2157
▁root	-2158
▁John	-2159
▁enh	-2160
▁18	-2161
▁ru	-2162
3.	-2163
▁animal	-2164
▁plant	-2165
▁Next	-2166
view	-2167
▁direct	-2168
▁choose	-2169
▁events	-2170
▁objects	-2171
▁quant	-2172
iency	-2173
ording	-2174
ole	-2175
ala	-2176
▁sens	-2177
▁connect	-2178
ches	-2179
me	-2180
▁hours	-2181
▁caus	-2182
▁challenges	-2183
reen	-2184
▁transportation	-2185
▁sentences	-2186
uck	-2187
▁Comp	-2188
▁taking	-2189
▁businesses	-2190
▁consist	-2191
ground	-2192
vey	-2193
▁25	-2194
opp	-2195
▁plot	-2196
lection	-2197
▁cultural	-2198
cover	-2199
▁too	-2200
air	-2201
itude	-2202
onyms	-2203
lex	-2204
▁goals	-2205
▁frequency	-2206
▁Pr	-2207
ples	-2208
▁tren	-2209
▁pain	-2210
▁short	-2211
egr	-2212
▁Swift	-2213
ane	-2214
▁sche	-2215
▁util	-2216
urs	-2217
▁adjust	-2218
[]	-2219
▁respect	-2220
verb	-2221
orld	-2222
▁services	-2223
sum	-2224
▁cir	-2225
▁put	-2226
length	-2227
alle	-2228
▁experi	-2229
▁summary	-2230
▁assign	-2231
▁autom	-2232
fect	-2233
▁works	-2234
▁detail	-2235
land	-2236
▁others	-2237
▁16	-2238
▁maintain	-2239
▁associ	-2240
▁Em	-2241
▁+=	-2242
rypt	-2243
culate	-2244
▁compon	-2245
cription	-2246
▁management	-2247
▁friends	-2248
25	-2249
▁essential	-2250
▁role	-2251
ELE	-2252
`,	-2253
python	-2254
▁variety	-2255
alse	-2256
▁ear	-2257
HP	-2258
▁models	-2259
osp	-2260
▁5,	-2261
▁describ	-2262
atter	-2263
▁preferences	-2264
▁Tr	-2265
▁ball	-2266
▁music	-2267
▁5:	-2268
▁hard	-2269
▁explore	-2270
ancial	-2271
atch	-2272
▁integr	-2273
gen	-2274
ush	-2275
▁noun	-2276
▁tool	-2277
▁period	-2278
▁graph	-2279
Ch	-2280
ks	-2281
▁password	-2282
▁With	-2283
11	-2284
cending	-2285
▁match	-2286
▁blue	-2287
ney	-2288
html	-2289
work	-2290
epar	-2291
▁enjoy	-2292
▁:=	-2293
▁highest	-2294
▁quality	-2295
▁greater	-2296
▁prevent	-2297
vern	-2298
▁index	-2299
olve	-2300
▁Data	-2301
irtual	-2302
ELECT	-2303
▁further	-2304
▁chart	-2305
▁dog	-2306
▁functions	-2307
▁fig	-2308
▁Ruby	-2309
▁self	-2310
▁influ	-2311
▁study	-2312
▁measure	-2313
▁third	-2314
oes	-2315
':	-2316
▁Che	-2317
rt	-2318
based	-2319
▁climate	-2320
▁due	-2321
▁fit	-2322
($	-2323
▁gram	-2324
ological	-2325
med	-2326
ining	-2327
▁lower	-2328
▁mag	-2329
ey	-2330
▁minim	-2331
▁recipe	-2332
▁images	-2333
▁heart	-2334
▁prev	-2335
▁devices	-2336
idth	-2337
oms	-2338
▁brow	-2339
▁Earth	-2340
▁PHP	-2341
▁traditional	-2342
[0	-2343
aw	-2344
ategy	-2345
▁block	-2346
ng	-2347
ral	-2348
▁brand	-2349
lying	-2350
▁pattern	-2351
ulate	-2352
▁post	-2353
▁particular	-2354
▁States	-2355
▁integer	-2356
▁card	-2357
rodu	-2358
▁define	-2359
▁description	-2360
Name	-2361
des	-2362
▁along	-2363
..	-2364
▁refer	-2365
▁collect	-2366
▁whether	-2367
▁Based	-2368
iles	-2369
ones	-2370
issions	-2371
come	-2372
▁clean	-2373
▁materials	-2374
▁9.	-2375
▁strategies	-2376
orical	-2377
▁typically	-2378
▁height	-2379
▁English	-2380
▁source	-2381
//	-2382
▁lik	-2383
▁needed	-2384
▁money	-2385
▁incorrect	-2386
ived	-2387
▁commonly	-2388
▁50	-2389
leep	-2390
obal	-2391
▁healthcare	-2392
▁Other	-2393
▁valid	-2394
▁exerc	-2395
▁initial	-2396
▁wal	-2397
▁application	-2398
▁financial	-2399
▁4,	-2400
▁capt	-2401
udget	-2402
▁30	-2403
}{	-2404
etic	-2405
▁compare	-2406
Pr	-2407
enc	-2408
upp	-2409
▁bal	-2410
▁cour	-2411
▁combination	-2412
▁iter	-2413
▁education	-2414
oor	-2415
▁deg	-2416
An	-2417
▁rece	-2418
50	-2419
ci	-2420
▁begin	-2421
▁Some	-2422
rior	-2423
aren	-2424
▁Res	-2425
▁stress	-2426
elligence	-2427
▁jour	-2428
▁prote	-2429
▁numer	-2430
▁challenge	-2431
aris	-2432
▁evalu	-2433
ese	-2434
ountain	-2435
▁Yes	-2436
▁requirements	-2437
▁["	-2438
▁New	-2439
▁10.	-2440
ties	-2441
▁healthy	-2442
json	-2443
▁But	-2444
▁Ap	-2445
Line	-2446
sentence	-2447
▁base	-2448
ensity	-2449
▁stay	-2450
resh	-2451
▁Inc	-2452
process	-2453
▁vector	-2454
book	-2455
▁designed	-2456
▁Calculate	-2457
▁waste	-2458
elling	-2459
▁profess	-2460
▁report	-2461
▁become	-2462
▁option	-2463
▁Example	-2464
▁sport	-2465
qrt	-2466
▁adding	-2467
▁fac	-2468
▁still	-2469
iddle	-2470
▁distrib	-2471
▁someone	-2472
7,	-2473
avig	-2474
anguages	-2475
bers	-2476
▁exist	-2477
▁him	-2478
▁govern	-2479
▁After	-2480
▁diet	-2481
list	-2482
include	-2483
▁missing	-2484
].	-2485
▁done	-2486
▁separ	-2487
ords	-2488
▁creates	-2489
aster	-2490
atic	-2491
orn	-2492
▁ideas	-2493
pportun	-2494
▁adapt	-2495
▁incorporate	-2496
tic	-2497
▁leg	-2498
lement	-2499
▁providing	-2500
▁economic	-2501
▁previous	-2502
ogle	-2503
▁bir	-2504
onstr	-2505
▁protect	-2506
fact	-2507
▁books	-2508
▁associated	-2509
gress	-2510
▁press	-2511
▁bas	-2512
▁efficiency	-2513
nov	-2514
sv	-2515
▁usage	-2516
▁mathematical	-2517
▁cy	-2518
▁share	-2519
▁libraries	-2520
▁reducing	-2521
cribe	-2522
▁makes	-2523
hab	-2524
emic	-2525
▁1/	-2526
▁Gu	-2527
Con	-2528
body	-2529
clusion	-2530
isions	-2531
ither	-2532
CG	-2533
▁instru	-2534
ips	-2535
▁characteristics	-2536
ctionary	-2537
down	-2538
▁mill	-2539
ROM	-2540
▁camp	-2541
List	-2542
▁sets	-2543
▁hab	-2544
▁category	-2545
▁environmental	-2546
▁article	-2547
▁adjectives	-2548
▁nature	-2549
▁working	-2550
oll	-2551
▁employees	-2552
order	-2553
▁days	-2554
▁classify	-2555
▁strategy	-2556
tt	-2557
▁maximum	-2558
cean	-2559
▁upd	-2560
▁across	-2561
▁bi	-2562
])	-2563
▁demonstr	-2564
▁factor	-2565
▁generated	-2566
▁Rem	-2567
▁located	-2568
▁importance	-2569
://	-2570
inct	-2571
▁forest	-2572
▁Bl	-2573
▁differences	-2574
ID	-2575
▁Sim	-2576
iting	-2577
▁Each	-2578
▁detect	-2579
▁optimize	-2580
▁move	-2581
▁languages	-2582
▁save	-2583
▁say	-2584
▁style	-2585
▁restaur	-2586
self	-2587
add	-2588
▁added	-2589
▁console	-2590
key	-2591
jor	-2592
▁very	-2593
▁mind	-2594
▁virtual	-2595
reng	-2596
ball	-2597
▁divid	-2598
ging	-2599
▁wee	-2600
▁FROM	-2601
▁respons	-2602
▁Analy	-2603
▁Out	-2604
▁symbol	-2605
▁opportun	-2606
▁integers	-2607
effic	-2608
aling	-2609
▁US	-2610
reat	-2611
▁historical	-2612
ising	-2613
▁towards	-2614
▁song	-2615
▁sides	-2616
▁\\	-2617
▁did	-2618
▁enhance	-2619
▁view	-2620
▁Or	-2621
▁prim	-2622
▁perfect	-2623
▁conne	-2624
▁player	-2625
▁higher	-2626
▁vers	-2627
En	-2628
▁navig	-2629
▁vide	-2630
mon	-2631
iety	-2632
▁11	-2633
stit	-2634
ently	-2635
▁script	-2636
▁trends	-2637
bs	-2638
▁reach	-2639
▁budget	-2640
▁paramet	-2641
▁rout	-2642
agon	-2643
▁package	-2644
tem	-2645
▁cannot	-2646
▁]	-2647
▁prob	-2648
▁{"	-2649
par	-2650
');	-2651
▁Describe	-2652
▁transform	-2653
value	-2654
agraph	-2655
▁effects	-2656
▁exec	-2657
rics	-2658
LP	-2659
▁created	-2660
over	-2661
▁though	-2662
▁echo	-2663
ann	-2664
▁compet	-2665
▁plants	-2666
friend	-2667
▁dise	-2668
▁idea	-2669
▁student	-2670
▁path	-2671
▁occur	-2672
▁please	-2673
▁fra	-2674
mt	-2675
icles	-2676
ury	-2677
▁electric	-2678
▁reasoning	-2679
▁0,	-2680
ynam	-2681
▁pay	-2682
▁trees	-2683
▁largest	-2684
erv	-2685
▁depend	-2686
▁pres	-2687
▁liter	-2688
▁!	-2689
4.	-2690
9,	-2691
sort	-2692
▁error	-2693
itation	-2694
mosp	-2695
▁generates	-2696
▁foot	-2697
▁standard	-2698
ales	-2699
astic	-2700
uro	-2701
IN	-2702
▁phone	-2703
▁global	-2704
▁expect	-2705
▁single	-2706
▁purchase	-2707
go	-2708
▁box	-2709
▁background	-2710
▁frame	-2711
▁testing	-2712
▁triangle	-2713
atex	-2714
itor	-2715
▁Make	-2716
▁happy	-2717
▁convers	-2718
ival	-2719
▁advanced	-2720
obile	-2721
▁night	-2722
▁ang	-2723
ivers	-2724
▁prec	-2725
▁local	-2726
▁quickly	-2727
▁series	-2728
▁speech	-2729
▁belie	-2730
▁Be	-2731
▁clos	-2732
21	-2733
AR	-2734
iful	-2735
▁bar	-2736
ologies	-2737
▁author	-2738
dr	-2739
▁memory	-2740
▁easily	-2741
▁heat	-2742
▁classification	-2743
▁resulting	-2744
▁draw	-2745
To	-2746
▁enter	-2747
▁shape	-2748
▁instead	-2749
▁Fr	-2750
▁std	-2751
▁emissions	-2752
ised	-2753
▁decisions	-2754
▁war	-2755
▁attrib	-2756
▁pair	-2757
▁operations	-2758
ares	-2759
labor	-2760
▁tense	-2761
ificial	-2762
▁big	-2763
▁phot	-2764
▁metap	-2765
▁robot	-2766
▁containing	-2767
▁implementation	-2768
▁avoid	-2769
▁digits	-2770
omes	-2771
▁effectively	-2772
▁prior	-2773
oph	-2774
▁ant	-2775
▁analyzing	-2776
▁solutions	-2777
▁advant	-2778
▁digital	-2779
Pro	-2780
▁writing	-2781
input	-2782
▁free	-2783
▁ask	-2784
▁house	-2785
Cl	-2786
begin	-2787
▁lines	-2788
cking	-2789
eries	-2790
▁atmosp	-2791
▁dish	-2792
▁medical	-2793
▁either	-2794
▁Det	-2795
izations	-2796
rength	-2797
▁journey	-2798
▁considered	-2799
▁Dis	-2800
ators	-2801
▁written	-2802
▁intelligence	-2803
▁surface	-2804
▁discuss	-2805
▁major	-2806
▁now	-2807
uration	-2808
htt	-2809
▁sky	-2810
bl	-2811
▁shows	-2812
▁likely	-2813
▁smart	-2814
ished	-2815
▁neural	-2816
▁Cons	-2817
▁issues	-2818
rees	-2819
ged	-2820
oat	-2821
board	-2822
uce	-2823
▁subt	-2824
▁children	-2825
▁mass	-2826
idence	-2827
▁government	-2828
ges	-2829
▁Develop	-2830
▁egg	-2831
▁fields	-2832
ilt	-2833
**	-2834
▁sleep	-2835
▁progress	-2836
▁starting	-2837
▁innov	-2838
▁expens	-2839
▁matrix	-2840
6,	-2841
▁details	-2842
ident	-2843
["	-2844
▁fruit	-2845
rench	-2846
uted	-2847
▁mental	-2848
▁alp	-2849
▁properties	-2850
▁strings	-2851
▁priv	-2852
▁sav	-2853
▁recommendations	-2854
1)	-2855
▁powerful	-2856
▁according	-2857
▁complexity	-2858
phas	-2859
▁accom	-2860
▁rh	-2861
-0	-2862
div	-2863
NT	-2864
▁emotions	-2865
▁won	-2866
size	-2867
▁replace	-2868
▁measures	-2869
▁American	-2870
▁voice	-2871
ocation	-2872
▁internet	-2873
▁SELECT	-2874
case	-2875
▁bro	-2876
outh	-2877
round	-2878
▁dest	-2879
ustr	-2880
▁paper	-2881
▁dictionary	-2882
ele	-2883
plot	-2884
▁refers	-2885
▁modified	-2886
____	-2887
▁multip	-2888
12	-2889
▁Ph	-2890
odes	-2891
▁conclusion	-2892
▁gas	-2893
▁Note	-2894
unch	-2895
▁tim	-2896
|--------	-2897
100	-2898
use	-2899
aily	-2900
frac	-2901
weet	-2902
▁Task	-2903
▁groups	-2904
▁players	-2905
▁emotional	-2906
▁chat	-2907
▁lot	-2908
▁percent	-2909
append	-2910
▁tax	-2911
▁Find	-2912
▁topic	-2913
▁es	-2914
icro	-2915
▁pers	-2916
▁sustainable	-2917
ERE	-2918
iet	-2919
px	-2920
▁Set	-2921
▁polic	-2922
▁binary	-2923
▁employee	-2924
nown	-2925
csv	-2926
inking	-2927
sub	-2928
3)	-2929
▁Scala	-2930
▁device	-2931
▁radi	-2932
▁Int	-2933
▁compan	-2934
▁experiences	-2935
▁force	-2936
aches	-2937
▁discover	-2938
mit	-2939
▁gain	-2940
iel	-2941
▁scientific	-2942
label	-2943
▁looking	-2944
uments	-2945
▁community	-2946
enue	-2947
ffee	-2948
▁Check	-2949
▁science	-2950
▁components	-2951
friendly	-2952
▁Z	-2953
5)	-2954
▁Google	-2955
▁produce	-2956
▁load	-2957
▁costs	-2958
▁living	-2959
und	-2960
▁emphas	-2961
99	-2962
inations	-2963
▁secure	-2964
▁paragraph	-2965
▁planet	-2966
CGCG	-2967
▁smaller	-2968
▁building	-2969
▁rating	-2970
▁mil	-2971
▁cause	-2972
▁purpose	-2973
ok	-2974
ype	-2975
Ex	-2976
▁altern	-2977
▁accurate	-2978
epend	-2979
▁Consider	-2980
++)	-2981
▁polit	-2982
ites	-2983
▁desired	-2984
▁rain	-2985
ounter	-2986
▁promot	-2987
▁200	-2988
aken	-2989
▁famous	-2990
▁17	-2991
write	-2992
▁super	-2993
▁section	-2994
▁accurately	-2995
atest	-2996
ply	-2997
▁lar	-2998
ana	-2999
▁cook	-3000
▁successful	-3001
▁WH	-3002
▁cloud	-3003
ww	-3004
▁distinct	-3005
▁Person	-3006
▁insights	-3007
oin	-3008
rast	-3009
atures	-3010
▁fruits	-3011
▁ur	-3012
▁Mark	-3013
▁instance	-3014
▁interactive	-3015
▁hot	-3016
▁veh	-3017
▁selected	-3018
Val	-3019
▁ey	-3020
▁computing	-3021
▁creative	-3022
Element	-3023
▁having	-3024
▁black	-3025
earch	-3026
random	-3027
▁production	-3028
Col	-3029
color	-3030
5.	-3031
anger	-3032
▁strength	-3033
ina	-3034
▁face	-3035
strain	-3036
ptions	-3037
▁involve	-3038
▁exercise	-3039
▁AS	-3040
▁problems	-3041
▁Te	-3042
▁cout	-3043
▁convey	-3044
gon	-3045
▁conse	-3046
▁imag	-3047
▁relationships	-3048
aract	-3049
▁loss	-3050
ffor	-3051
.</	-3052
▁dynam	-3053
▁cities	-3054
▁room	-3055
Th	-3056
▁probability	-3057
▁eco	-3058
▁opp	-3059
><	-3060
orage	-3061
rand	-3062
Write	-3063
▁since	-3064
▁patient	-3065
▁[]	-3066
acy	-3067
▁cho	-3068
▁remove	-3069
af	-3070
load	-3071
idden	-3072
▁Qu	-3073
▁appl	-3074
ellow	-3075
▁figure	-3076
▁daily	-3077
▁region	-3078
lt	-3079
Ind	-3080
▁link	-3081
▁World	-3082
▁bot	-3083
▁stock	-3084
▁traffic	-3085
▁running	-3086
chan	-3087
▁mix	-3088
ifies	-3089
▁easier	-3090
▁feeling	-3091
opping	-3092
▁effor	-3093
▁wide	-3094
abilities	-3095
▁buy	-3096
▁throughout	-3097
▁pand	-3098
▁calculates	-3099
swer	-3100
▁false	-3101
▁speak	-3102
▁Another	-3103
▁Console	-3104
▁technologies	-3105
▁mobile	-3106
▁201	-3107
▁members	-3108
▁catch	-3109
▁poll	-3110
▁practices	-3111
▁visit	-3112
▁revenue	-3113
▁Inst	-3114
▁GP	-3115
yll	-3116
▁turn	-3117
▁scenari	-3118
▁vegetables	-3119
mar	-3120
log	-3121
train	-3122
▁errors	-3123
▁suit	-3124
▁Red	-3125
▁week	-3126
olving	-3127
▁Choose	-3128
▁mountain	-3129
score	-3130
▁reli	-3131
Sc	-3132
▁connection	-3133
▁warm	-3134
pre	-3135
▁arch	-3136
▁mechan	-3137
amm	-3138
uff	-3139
habet	-3140
orth	-3141
fit	-3142
▁percentage	-3143
▁recognition	-3144
▁fall	-3145
▁against	-3146
By	-3147
▁accompl	-3148
▁divis	-3149
ustomer	-3150
▁constrain	-3151
▁scho	-3152
▁French	-3153
▁abs	-3154
ients	-3155
aign	-3156
▁&&	-3157
▁port	-3158
itch	-3159
▁stored	-3160
▁larger	-3161
eline	-3162
iveness	-3163
my	-3164
▁Is	-3165
▁repe	-3166
term	-3167
▁Good	-3168
▁rules	-3169
▁actions	-3170
▁rows	-3171
▁dom	-3172
▁highlight	-3173
▁oil	-3174
▁CSS	-3175
▁Open	-3176
▁Ass	-3177
▁upon	-3178
▁culture	-3179
▁fish	-3180
imens	-3181
ourage	-3182
▁cells	-3183
▁states	-3184
ooth	-3185
▁demand	-3186
▁synonyms	-3187
[1	-3188
wh	-3189
▁chatbot	-3190
▁dark	-3191
▁luck	-3192
▁away	-3193
▁tell	-3194
▁among	-3195
▁engaging	-3196
itect	-3197
▁collabor	-3198
▁server	-3199
▁evaluate	-3200
lear	-3201
▁14	-3202
efficient	-3203
au	-3204
ifically	-3205
Count	-3206
▁static	-3207
▁park	-3208
pty	-3209
▁Latex	-3210
-3	-3211
▁restaurant	-3212
▁challenging	-3213
ql	-3214
▁protein	-3215
▁Determ	-3216
ids	-3217
pot	-3218
▁live	-3219
Ar	-3220
▁odd	-3221
▁layer	-3222
▁ensuring	-3223
2>	-3224
▁7,	-3225
▁mom	-3226
▁categories	-3227
redient	-3228
ND	-3229
ception	-3230
▁ill	-3231
▁solar	-3232
▁Sub	-3233
▁played	-3234
▁cm	-3235
▁WHERE	-3236
▁never	-3237
▁manage	-3238
▁existing	-3239
▁basic	-3240
▁novel	-3241
▁center	-3242
plication	-3243
▁alphabet	-3244
▁offers	-3245
▁lives	-3246
▁communicate	-3247
▁men	-3248
▁beautiful	-3249
▁built	-3250
▁highly	-3251
println	-3252
▁metaphor	-3253
▁platforms	-3254
▁campaign	-3255
ES	-3256
▁Trans	-3257
▁increased	-3258
path	-3259
▁**	-3260
▁conduct	-3261
▁saf	-3262
▁units	-3263
ises	-3264
▁season	-3265
▁companies	-3266
min	-3267
▁attention	-3268
▁continu	-3269
▁depending	-3270
arc	-3271
▁limit	-3272
▁Start	-3273
result	-3274
plac	-3275
ters	-3276
▁void	-3277
▁butter	-3278
▁decimal	-3279
▁constant	-3280
▁coffee	-3281
ready	-3282
▁rock	-3283
▁atmosphere	-3284
88	-3285
▁Key	-3286
▁started	-3287
▁motiv	-3288
▁million	-3289
▁reflect	-3290
raft	-3291
aps	-3292
▁renew	-3293
▁processes	-3294
▁Guidelines	-3295
allest	-3296
▁gives	-3297
▁increasing	-3298
▁8,	-3299
▁checks	-3300
▁cru	-3301
▁instrument	-3302
inner	-3303
▁compos	-3304
icious	-3305
▁rates	-3306
file	-3307
▁full	-3308
known	-3309
▁leading	-3310
▁regression	-3311
▁Le	-3312
▁prices	-3313
▁Certain	-3314
https	-3315
▁capital	-3316
▁?	-3317
ended	-3318
▁particip	-3319
▁meters	-3320
▁randomly	-3321
WriteLine	-3322
apan	-3323
▁once	-3324
▁cover	-3325
▁6,	-3326
▁setting	-3327
bject	-3328
position	-3329
▁pan	-3330
ocol	-3331
▁CSV	-3332
▁spread	-3333
▁far	-3334
▁pun	-3335
▁prep	-3336
rief	-3337
▁obser	-3338
▁phrases	-3339
▁already	-3340
▁10,	-3341
▁comes	-3342
▁Euro	-3343
▁pressure	-3344
▁Certainly	-3345
year	-3346
comes	-3347
Wh	-3348
▁round	-3349
▁balance	-3350
▁Sm	-3351
▁stop	-3352
▁opportunities	-3353
▁aspect	-3354
▁minimum	-3355
▁func	-3356
▁flavor	-3357
ection	-3358
cer	-3359
number	-3360
su	-3361
▁introdu	-3362
amb	-3363
rition	-3364
▁equations	-3365
pir	-3366
ump	-3367
▁technique	-3368
▁law	-3369
▁pow	-3370
▁implementing	-3371
▁imm	-3372
▁chem	-3373
ordin	-3374
▁contrast	-3375
ene	-3376
▁describes	-3377
met	-3378
point	-3379
▁mel	-3380
unction	-3381
▁!=	-3382
▁hidden	-3383
asons	-3384
▁limited	-3385
▁ones	-3386
▁Determine	-3387
▁sty	-3388
▁mention	-3389
era	-3390
inci	-3391
▁architect	-3392
Int	-3393
▁movies	-3394
▁Dec	-3395
▁sports	-3396
▁Output	-3397
▁humans	-3398
alf	-3399
xy	-3400
dom	-3401
▁taken	-3402
▁La	-3403
oup	-3404
▁ground	-3405
▁India	-3406
ror	-3407
▁film	-3408
arison	-3409
RL	-3410
▁treat	-3411
▁Car	-3412
▁sea	-3413
▁advent	-3414
▁storage	-3415
▁fu	-3416
▁slow	-3417
▁moon	-3418
▁simply	-3419
test	-3420
▁promote	-3421
▁sweet	-3422
▁habit	-3423
▁degrees	-3424
00,	-3425
ule	-3426
▁bird	-3427
ows	-3428
9.	-3429
▁interface	-3430
▁1)	-3431
▁bo	-3432
▁led	-3433
ster	-3434
oding	-3435
description	-3436
▁significance	-3437
ux	-3438
▁surv	-3439
mark	-3440
▁doc	-3441
▁stru	-3442
▁gather	-3443
oman	-3444
▁13	-3445
▁lit	-3446
▁map	-3447
▁news	-3448
▁divide	-3449
▁beauty	-3450
type	-3451
▁ocean	-3452
▁visually	-3453
.",	-3454
index	-3455
agn	-3456
oyal	-3457
une	-3458
ager	-3459
▁cand	-3460
ipment	-3461
cial	-3462
▁ice	-3463
▁Pre	-3464
▁poss	-3465
1>	-3466
▁brain	-3467
rap	-3468
▁young	-3469
▁enough	-3470
▁modern	-3471
▁continue	-3472
▁files	-3473
▁artificial	-3474
▁remaining	-3475
▁ban	-3476
quences	-3477
▁leaves	-3478
RE	-3479
▁tone	-3480
▁fresh	-3481
umbers	-3482
▁summar	-3483
lines	-3484
▁schedu	-3485
▁lif	-3486
▁appear	-3487
za	-3488
▁CO	-3489
▁kind	-3490
▁outcomes	-3491
▁vow	-3492
▁json	-3493
▁pep	-3494
▁adjective	-3495
▁themes	-3496
man	-3497
").	-3498
▁piece	-3499
▁white	-3500
▁primary	-3501
▁max	-3502
acks	-3503
raction	-3504
▁cheese	-3505
alind	-3506
▁flex	-3507
fric	-3508
▁puts	-3509
▁Since	-3510
istical	-3511
chain	-3512
▁update	-3513
▁et	-3514
▁fill	-3515
▁predictions	-3516
));	-3517
▁volume	-3518
▁exact	-3519
▁descending	-3520
▁consumption	-3521
structure	-3522
▁theme	-3523
ders	-3524
▁guide	-3525
▁renewable	-3526
▁satisfaction	-3527
ufact	-3528
▁cred	-3529
▁Japan	-3530
';	-3531
che	-3532
->	-3533
Text	-3534
alindrom	-3535
▁preprocess	-3536
▁font	-3537
Index	-3538
▁professional	-3539
isms	-3540
▁digit	-3541
▁organization	-3542
▁contribute	-3543
▁developing	-3544
arden	-3545
▁income	-3546
▁assist	-3547
[0]	-3548
▁responsible	-3549
▁Europe	-3550
▁obtain	-3551
▁political	-3552
6.	-3553
more	-3554
▁tur	-3555
▁identifying	-3556
▁games	-3557
ativity	-3558
▁---	-3559
▁crucial	-3560
▁board	-3561
oke	-3562
▁24	-3563
umn	-3564
DD	-3565
▁hold	-3566
▁issue	-3567
▁accomplish	-3568
▁today	-3569
right	-3570
▁bring	-3571
▁allowing	-3572
▁concise	-3573
▁smallest	-3574
enced	-3575
▁My	-3576
▁tour	-3577
▁productivity	-3578
eet	-3579
▁remov	-3580
Re	-3581
▁sugar	-3582
▁adds	-3583
bf	-3584
▁cut	-3585
▁critical	-3586
plify	-3587
ored	-3588
▁eggs	-3589
▁emer	-3590
▁At	-3591
▁estab	-3592
▁cooking	-3593
▁width	-3594
▁separate	-3595
?"	-3596
▁entire	-3597
anish	-3598
▁shap	-3599
▁efficiently	-3600
▁comfor	-3601
▁networks	-3602
▁favor	-3603
▁belong	-3604
▁install	-3605
equ	-3606
▁private	-3607
ifier	-3608
▁cool	-3609
▁(2	-3610
▁useful	-3611
box	-3612
▁economy	-3613
elt	-3614
agram	-3615
cur	-3616
eds	-3617
▁Class	-3618
▁paren	-3619
antic	-3620
▁Tw	-3621
stac	-3622
▁Are	-3623
▁shopping	-3624
▁cars	-3625
▁feet	-3626
▁America	-3627
▁suggests	-3628
▁label	-3629
ST	-3630
NN	-3631
aracter	-3632
▁empty	-3633
▁logical	-3634
-2	-3635
▁cam	-3636
▁discount	-3637
arah	-3638
▁rhym	-3639
▁Jack	-3640
icken	-3641
illed	-3642
po	-3643
▁followed	-3644
▁going	-3645
▁bag	-3646
▁York	-3647
▁surround	-3648
▁statistical	-3649
gra	-3650
ius	-3651
▁token	-3652
▁property	-3653
7.	-3654
▁school	-3655
▁lists	-3656
artment	-3657
▁reader	-3658
▁matches	-3659
▁distribution	-3660
▁manip	-3661
▁bright	-3662
▁finding	-3663
EA	-3664
▁Lear	-3665
▁tail	-3666
▁Design	-3667
▁industries	-3668
▁situation	-3669
▁valu	-3670
pply	-3671
▁Option	-3672
map	-3673
imin	-3674
product	-3675
▁Remember	-3676
izer	-3677
Value	-3678
▁Print	-3679
▁thinking	-3680
like	-3681
▁batter	-3682
▁milk	-3683
())	-3684
▁Ret	-3685
trans	-3686
▁ste	-3687
top	-3688
▁6:	-3689
---|	-3690
▁dire	-3691
agonist	-3692
▁screen	-3693
plays	-3694
▁brief	-3695
▁diverse	-3696
▁identified	-3697
▁playing	-3698
owl	-3699
▁dishes	-3700
30	-3701
▁hor	-3702
▁($	-3703
lict	-3704
▁approxim	-3705
▁improving	-3706
▁oppos	-3707
▁behind	-3708
▁course	-3709
ero	-3710
▁reviews	-3711
▁fmt	-3712
▁ful	-3713
▁walk	-3714
▁cream	-3715
▁plastic	-3716
rack	-3717
house	-3718
▁node	-3719
omen	-3720
▁calculated	-3721
▁$1	-3722
▁Acc	-3723
▁involved	-3724
Te	-3725
sy	-3726
volution	-3727
▁programs	-3728
▁hypot	-3729
oe	-3730
eting	-3731
▁ten	-3732
He	-3733
▁Apple	-3734
▁lon	-3735
▁taste	-3736
▁argument	-3737
▁->	-3738
▁video	-3739
▁tables	-3740
▁improv	-3741
▁active	-3742
sqrt	-3743
▁road	-3744
80	-3745
▁princi	-3746
▁mor	-3747
▁moment	-3748
▁chemical	-3749
▁Afric	-3750
▁Spec	-3751
▁trained	-3752
▁vary	-3753
▁Solution	-3754
▁wood	-3755
▁usually	-3756
▁navigate	-3757
▁math	-3758
▁linear	-3759
▁grammat	-3760
tics	-3761
▁manufact	-3762
'.	-3763
bre	-3764
▁invent	-3765
▁interests	-3766
▁correl	-3767
▁brown	-3768
▁visualization	-3769
▁record	-3770
▁recy	-3771
▁salt	-3772
▁seen	-3773
▁six	-3774
class	-3775
▁obstac	-3776
We	-3777
uis	-3778
='	-3779
▁meal	-3780
▁displays	-3781
▁loyal	-3782
Print	-3783
price	-3784
▁strugg	-3785
▁parameters	-3786
sel	-3787
▁stream	-3788
spe	-3789
room	-3790
▁Med	-3791
▁society	-3792
comp	-3793
free	-3794
Ph	-3795
▁synt	-3796
▁changing	-3797
▁suitable	-3798
▁advantages	-3799
change	-3800
ided	-3801
▁comparison	-3802
45	-3803
▁That	-3804
▁really	-3805
ike	-3806
▁miles	-3807
ched	-3808
4)	-3809
ends	-3810
▁Fl	-3811
flow	-3812
▁engagement	-3813
section	-3814
ognitive	-3815
▁Further	-3816
▁grav	-3817
▁prints	-3818
▁insert	-3819
▁smooth	-3820
Sent	-3821
▁fib	-3822
cont	-3823
▁emb	-3824
▁incorporating	-3825
raw	-3826
▁vac	-3827
itam	-3828
▁Reg	-3829
60	-3830
▁alternative	-3831
▁hun	-3832
▁decre	-3833
▁regions	-3834
cling	-3835
▁sand	-3836
iation	-3837
wise	-3838
▁City	-3839
asure	-3840
▁safety	-3841
(2	-3842
▁respective	-3843
uting	-3844
▁keywords	-3845
▁War	-3846
▁aff	-3847
▁Rec	-3848
ilter	-3849
▁Su	-3850
0000	-3851
split	-3852
▁endl	-3853
▁Machine	-3854
▁multiply	-3855
▁starts	-3856
▁interp	-3857
▁heav	-3858
▁everyone	-3859
roc	-3860
▁faster	-3861
▁Per	-3862
▁wid	-3863
orrect	-3864
▁electron	-3865
zon	-3866
pace	-3867
▁divisible	-3868
▁Furthermore	-3869
▁cele	-3870
}$	-3871
cular	-3872
▁framework	-3873
life	-3874
ha	-3875
};	-3876
▁trip	-3877
▁subtract	-3878
dis	-3879
▁Mon	-3880
array	-3881
atio	-3882
hood	-3883
▁Sarah	-3884
ormal	-3885
▁menu	-3886
▁nutrition	-3887
▁amounts	-3888
▁places	-3889
aff	-3890
▁Fe	-3891
anges	-3892
▁longer	-3893
▁capture	-3894
▁Rep	-3895
total	-3896
▁mole	-3897
▁traits	-3898
▁compared	-3899
▁apply	-3900
▁scores	-3901
▁expenses	-3902
▁pollution	-3903
▁BY	-3904
aptop	-3905
max	-3906
▁pieces	-3907
ield	-3908
ams	-3909
▁equipment	-3910
bit	-3911
▁syll	-3912
▁clust	-3913
ography	-3914
▁caused	-3915
▁circ	-3916
▁optimal	-3917
▁version	-3918
ographic	-3919
▁computers	-3920
ban	-3921
▁ID	-3922
▁nutri	-3923
ifications	-3924
ltk	-3925
▁becomes	-3926
ership	-3927
ference	-3928
aged	-3929
▁angle	-3930
▁matter	-3931
▁completed	-3932
▁2)	-3933
▁click	-3934
▁intern	-3935
ache	-3936
▁near	-3937
▁Ne	-3938
▁Man	-3939
▁replac	-3940
opulation	-3941
ternal	-3942
8.	-3943
lean	-3944
▁`<	-3945
level	-3946
▁forms	-3947
▁reality	-3948
▁practice	-3949
ouch	-3950
▁early	-3951
imet	-3952
▁ascending	-3953
▁garden	-3954
▁trying	-3955
▁disease	-3956
icial	-3957
water	-3958
▁From	-3959
▁birth	-3960
▁structures	-3961
ny	-3962
She	-3963
▁seem	-3964
▁reasons	-3965
▁independ	-3966
bles	-3967
▁Time	-3968
cre	-3969
▁$\	-3970
istr	-3971
▁bott	-3972
page	-3973
▁60	-3974
▁tags	-3975
▁scale	-3976
▁Product	-3977
▁implemented	-3978
▁favorite	-3979
ello	-3980
▁Analyze	-3981
▁expected	-3982
gs	-3983
plies	-3984
▁Spanish	-3985
▁conflict	-3986
▁abilities	-3987
▁birds	-3988
solving	-3989
aten	-3990
▁dam	-3991
▁fast	-3992
▁Answer	-3993
▁mentioned	-3994
▁lov	-3995
▁arrange	-3996
▁emotion	-3997
othing	-3998
▁clause	-3999
car	-4000
omic	-4001
▁cross	-4002
iling	-4003
▁9,	-4004
selves	-4005
▁meeting	-4006
▁substit	-4007
▁movement	-4008
▁general	-4009
▁quantum	-4010
▁Learning	-4011
▁experiment	-4012
hentic	-4013
ms	-4014
▁gar	-4015
▁whole	-4016
▁painting	-4017
▁conver	-4018
atives	-4019
letter	-4020
cast	-4021
irus	-4022
▁bul	-4023
▁queries	-4024
ocial	-4025
▁pred	-4026
textbf	-4027
erve	-4028
▁gender	-4029
▁Research	-4030
▁appealing	-4031
22	-4032
Array	-4033
▁Load	-4034
weight	-4035
ounds	-4036
iverse	-4037
▁specified	-4038
redict	-4039
▁rect	-4040
hold	-4041
▁approximately	-4042
\\	-4043
▁itself	-4044
▁shown	-4045
iate	-4046
xygen	-4047
SQL	-4048
power	-4049
ryption	-4050
▁dynamic	-4051
▁button	-4052
NLP	-4053
▁Get	-4054
essage	-4055
▁Germ	-4056
▁split	-4057
iff	-4058
▁<=	-4059
▁client	-4060
▁innovative	-4061
>`	-4062
att	-4063
▁fix	-4064
▁party	-4065
▁representation	-4066
EB	-4067
▁cub	-4068
!"	-4069
▁0.0	-4070
▁clues	-4071
▁stores	-4072
▁thought	-4073
▁Implement	-4074
ening	-4075
▁"<	-4076
Com	-4077
plications	-4078
erate	-4079
▁Take	-4080
ots	-4081
▁cake	-4082
LT	-4083
▁['	-4084
▁Great	-4085
▁genre	-4086
▁advert	-4087
etch	-4088
ication	-4089
▁encourage	-4090
ything	-4091
▁choices	-4092
▁arrays	-4093
tml	-4094
▁>=	-4095
ffer	-4096
▁beach	-4097
pan	-4098
John	-4099
▁thr	-4100
▁architecture	-4101
+1	-4102
aving	-4103
▁middle	-4104
▁wa	-4105
▁1000	-4106
pite	-4107
phone	-4108
Time	-4109
▁breath	-4110
▁ingredient	-4111
asket	-4112
ctors	-4113
▁myst	-4114
▁reliable	-4115
888,	-4116
▁protagonist	-4117
▁dream	-4118
▁priorit	-4119
View	-4120
find	-4121
▁tips	-4122
▁effectiveness	-4123
▁cases	-4124
888,888,	-4125
▁apples	-4126
▁iterate	-4127
▁Convert	-4128
▁developed	-4129
▁No	-4130
▁Imag	-4131
▁cognitive	-4132
osen	-4133
▁sauce	-4134
▁recent	-4135
▁fire	-4136
▁combinations	-4137
▁peace	-4138
▁wild	-4139
▁particularly	-4140
▁Cont	-4141
▁influence	-4142
zy	-4143
▁revolution	-4144
▁months	-4145
▁radius	-4146
▁sorting	-4147
ulations	-4148
Id	-4149
▁South	-4150
uations	-4151
▁metrics	-4152
.")	-4153
kens	-4154
▁went	-4155
▁valuable	-4156
Im	-4157
▁Test	-4158
▁bill	-4159
((	-4160
acity	-4161
▁sqrt	-4162
ront	-4163
▁len	-4164
person	-4165
▁reading	-4166
▁ult	-4167
cient	-4168
▁outd	-4169
soft	-4170
▁updated	-4171
▁boo	-4172
IT	-4173
▁1;	-4174
▁colle	-4175
▁century	-4176
▁rare	-4177
atively	-4178
▁quantity	-4179
NA	-4180
▁Sum	-4181
ocal	-4182
▁Under	-4183
▁Just	-4184
▁circle	-4185
reg	-4186
▁Look	-4187
▁pepper	-4188
▁seconds	-4189
▁cats	-4190
ission	-4191
part	-4192
▁ter	-4193
anging	-4194
▁knew	-4195
option	-4196
▁flour	-4197
▁recip	-4198
oop	-4199
▁All	-4200
idate	-4201
▁doing	-4202
▁watch	-4203
▁)	-4204
▁town	-4205
▁transactions	-4206
0)	-4207
EAEB	-4208
ivery	-4209
alindrome	-4210
15	-4211
tings	-4212
▁destination	-4213
▁latest	-4214
▁manner	-4215
EAEBEAEB	-4216
▁mood	-4217
▁respectively	-4218
cond	-4219
ighb	-4220
onic	-4221
▁Also	-4222
arp	-4223
iku	-4224
▁assum	-4225
▁relax	-4226
▁intric	-4227
▁attributes	-4228
IM	-4229
().	-4230
ayer	-4231
▁accordingly	-4232
"?	-4233
AC	-4234
▁footprint	-4235
▁mi	-4236
▁blog	-4237
▁_	-4238
irl	-4239
▁Mar	-4240
Words	-4241
▁little	-4242
▁expressions	-4243
▁decl	-4244
making	-4245
▁blockchain	-4246
dro	-4247
▁everything	-4248
▁inside	-4249
ky	-4250
▁soil	-4251
></	-4252
▁bread	-4253
▁ecosystem	-4254
▁personality	-4255
▁king	-4256
▁expert	-4257
achines	-4258
▁schedule	-4259
▁GPT	-4260
▁sus	-4261
▁pet	-4262
token	-4263
▁Give	-4264
▁yellow	-4265
/2	-4266
▁correctly	-4267
fast	-4268
▁1/2	-4269
▁tit	-4270
-|	-4271
ancing	-4272
▁delicious	-4273
na	-4274
▁actual	-4275
▁operator	-4276
▁deb	-4277
▁maintaining	-4278
▁star	-4279
▁Similar	-4280
▁drink	-4281
▁organizations	-4282
▁half	-4283
▁Comm	-4284
▁pict	-4285
▁regard	-4286
▁snow	-4287
--|	-4288
▁cuis	-4289
ingu	-4290
▁stars	-4291
▁ded	-4292
▁|--------	-4293
onac	-4294
range	-4295
▁Rewrite	-4296
▁websites	-4297
▁0)	-4298
quir	-4299
▁represented	-4300
icing	-4301
▁statements	-4302
▁java	-4303
rep	-4304
▁...	-4305
iking	-4306
start	-4307
▁indicate	-4308
▁scenario	-4309
Se	-4310
Word	-4311
▁AND	-4312
▁ir	-4313
antity	-4314
▁considering	-4315
0,000	-4316
ipher	-4317
▁coordin	-4318
▁fitness	-4319
▁fat	-4320
ademic	-4321
pecial	-4322
▁numerical	-4323
ceed	-4324
attle	-4325
▁eyes	-4326
▁html	-4327
Tr	-4328
▁INT	-4329
▁density	-4330
atory	-4331
▁improved	-4332
▁vel	-4333
osing	-4334
▁nltk	-4335
elsius	-4336
▁getting	-4337
Date	-4338
style	-4339
▁bowl	-4340
▁rele	-4341
TP	-4342
onacci	-4343
▁medium	-4344
Enter	-4345
▁gold	-4346
idity	-4347
-5	-4348
▁-1	-4349
▁scal	-4350
eration	-4351
▁op	-4352
▁photos	-4353
▁Imagine	-4354
py	-4355
▁""	-4356
▁mamm	-4357
▁chain	-4358
▁dietary	-4359
▁divided	-4360
stri	-4361
▁bra	-4362
▁Total	-4363
▁concepts	-4364
▁baking	-4365
▁bit	-4366
▁electricity	-4367
Add	-4368
oura	-4369
▁vehicles	-4370
▁URL	-4371
▁theory	-4372
▁encrypt	-4373
▁operating	-4374
ili	-4375
▁electr	-4376
▁mit	-4377
▁construct	-4378
ET	-4379
eled	-4380
▁interactions	-4381
▁rise	-4382
▁technical	-4383
ests	-4384
▁hol	-4385
▁correlation	-4386
^3	-4387
utive	-4388
▁host	-4389
ration	-4390
▁Read	-4391
aching	-4392
▁parse	-4393
cd	-4394
▁fund	-4395
▁widely	-4396
frastructure	-4397
▁styles	-4398
▁constraints	-4399
▁summer	-4400
Of	-4401
▁teams	-4402
xml	-4403
▁rich	-4404
▁recurs	-4405
▁evidence	-4406
▁temperatures	-4407
ada	-4408
▁etc	-4409
▁efforts	-4410
▁complet	-4411
▁Bu	-4412
lished	-4413
▁Train	-4414
▁career	-4415
▁hardware	-4416
Pl	-4417
▁High	-4418
▁upp	-4419
istance	-4420
▁Count	-4421
▁chosen	-4422
▁rather	-4423
izza	-4424
ously	-4425
employ	-4426
encies	-4427
ocolate	-4428
▁forward	-4429
▁audio	-4430
▁commit	-4431
rency	-4432
▁Techn	-4433
OS	-4434
▁mer	-4435
▁remind	-4436
▁policies	-4437
▁authentic	-4438
width	-4439
unning	-4440
▁flowers	-4441
▁duration	-4442
▁calculating	-4443
▁Text	-4444
ses	-4445
▁classes	-4446
ony	-4447
ung	-4448
▁notes	-4449
▁included	-4450
DP	-4451
▁Ke	-4452
example	-4453
thing	-4454
▁exam	-4455
▁tens	-4456
▁trust	-4457
▁interpret	-4458
cuss	-4459
mazon	-4460
▁Which	-4461
most	-4462
▁sounds	-4463
▁contact	-4464
▁remote	-4465
▁obstacles	-4466
▁||	-4467
▁laptop	-4468
veys	-4469
▁yourself	-4470
▁encounter	-4471
olar	-4472
being	-4473
▁anx	-4474
75	-4475
▁ly	-4476
Read	-4477
rase	-4478
▁oxygen	-4479
▁monitor	-4480
▁status	-4481
vised	-4482
▁planning	-4483
tag	-4484
▁hyper	-4485
▁Sort	-4486
▁Thank	-4487
▁diseases	-4488
▁consequences	-4489
▁nouns	-4490
▁engineering	-4491
▁attract	-4492
▁anything	-4493
Qu	-4494
▁safe	-4495
▁median	-4496
▁rule	-4497
▁tomat	-4498
▁",	-4499
ATE	-4500
ils	-4501
writ	-4502
▁hash	-4503
▁direction	-4504
▁cold	-4505
▁fuel	-4506
cal	-4507
▁mixt	-4508
ened	-4509
onom	-4510
dig	-4511
ules	-4512
▁Supp	-4513
▁syntax	-4514
▁ren	-4515
▁loyalty	-4516
▁doesn	-4517
▁defines	-4518
▁Sug	-4519
▁lost	-4520
▁projects	-4521
▁symbols	-4522
▁comparing	-4523
heet	-4524
ervation	-4525
▁texture	-4526
▁collection	-4527
II	-4528
Res	-4529
▁note	-4530
▁apple	-4531
▁drive	-4532
▁interested	-4533
33	-4534
dat	-4535
reci	-4536
php	-4537
▁Code	-4538
▁themselves	-4539
▁foods	-4540
▁dimens	-4541
oming	-4542
▁depth	-4543
document	-4544
Em	-4545
▁@	-4546
ford	-4547
▁investment	-4548
.,	-4549
▁Word	-4550
▁delivery	-4551
▁Vis	-4552
world	-4553
password	-4554
▁interview	-4555
▁40	-4556
▁Micro	-4557
▁close	-4558
▁scene	-4559
ado	-4560
imately	-4561
▁recommended	-4562
▁updates	-4563
numbers	-4564
▁external	-4565
pg	-4566
ried	-4567
thesis	-4568
▁ratio	-4569
▁Ge	-4570
▁pron	-4571
▁unit	-4572
▁opposite	-4573
▁extra	-4574
icy	-4575
▁shell	-4576
▁inputs	-4577
▁interesting	-4578
▁OR	-4579
▁chicken	-4580
illa	-4581
▁alt	-4582
model	-4583
▁North	-4584
AL	-4585
txt	-4586
ivil	-4587
igate	-4588
▁Amazon	-4589
▁France	-4590
▁functionality	-4591
▁Av	-4592
yond	-4593
▁creativity	-4594
▁availability	-4595
ialog	-4596
▁analyz	-4597
This	-4598
api	-4599
uten	-4600
▁fourth	-4601
▁Table	-4602
inal	-4603
arily	-4604
▁survey	-4605
▁Alex	-4606
▁inf	-4607
▁Similarly	-4608
▁component	-4609
▁remainder	-4610
▁ensures	-4611
▁impacts	-4612
▁accessible	-4613
▁infrastructure	-4614
▁filled	-4615
▁defined	-4616
▁pandemic	-4617
ino	-4618
▁indicating	-4619
▁selection	-4620
pus	-4621
image	-4622
Object	-4623
▁beyond	-4624
▁supply	-4625
▁determined	-4626
TeX	-4627
left	-4628
ached	-4629
▁routine	-4630
lights	-4631
▁cuisine	-4632
can	-4633
▁Ext	-4634
▁academic	-4635
▁selecting	-4636
▁anal	-4637
▁universe	-4638
▁Am	-4639
vant	-4640
▁qual	-4641
atitude	-4642
▁margin	-4643
▁optimization	-4644
SE	-4645
▁win	-4646
▁moving	-4647
▁demonstrates	-4648
opy	-4649
▁bur	-4650
▁blood	-4651
▁developers	-4652
▁fail	-4653
▁greenhouse	-4654
▁Tra	-4655
▁tweet	-4656
▁parameter	-4657
▁pages	-4658
▁receive	-4659
▁Art	-4660
▁clim	-4661
:",	-4662
▁NLP	-4663
▁tracking	-4664
iced	-4665
▁plac	-4666
▁vitam	-4667
▁member	-4668
▁Mult	-4669
▁became	-4670
▁extens	-4671
▁aware	-4672
▁locations	-4673
hline	-4674
▁Social	-4675
reet	-4676
query	-4677
▁China	-4678
Or	-4679
▁pd	-4680
▁illustr	-4681
▁operation	-4682
▁df	-4683
char	-4684
otes	-4685
▁punct	-4686
Un	-4687
▁du	-4688
pact	-4689
ellent	-4690
▁mixture	-4691
▁messages	-4692
▁carefully	-4693
▁Dr	-4694
▁border	-4695
▁transfer	-4696
▁kil	-4697
▁assess	-4698
location	-4699
DO	-4700
-01	-4701
rate	-4702
▁dead	-4703
▁speaker	-4704
▁mid	-4705
oration	-4706
CGCGCGCG	-4707
▁multiplication	-4708
▁remember	-4709
▁nutritional	-4710
▁zero	-4711
▁decided	-4712
▁achieved	-4713
▁machines	-4714
sl	-4715
atically	-4716
▁profit	-4717
utral	-4718
▁waves	-4719
▁classified	-4720
▁mission	-4721
▁specify	-4722
90	-4723
▁den	-4724
▁engage	-4725
▁requirement	-4726
67	-4727
▁Met	-4728
pected	-4729
▁touch	-4730
▁Random	-4731
▁chann	-4732
▁encryption	-4733
▁LaTeX	-4734
ai	-4735
▁leader	-4736
athe	-4737
▁diagn	-4738
az	-4739
gency	-4740
▁creature	-4741
▁demonstrate	-4742
ptive	-4743
▁basket	-4744
ned	-4745
▁Last	-4746
>";	-4747
quality	-4748
hel	-4749
▁Sent	-4750
▁aspects	-4751
irm	-4752
Item	-4753
iding	-4754
▁Natural	-4755
▁sup	-4756
▁logic	-4757
▁labels	-4758
▁reverse	-4759
64	-4760
sych	-4761
▁Pot	-4762
▁plt	-4763
▁landsc	-4764
▁responses	-4765
▁dogs	-4766
▁secret	-4767
▁adverb	-4768
(),	-4769
▁Rob	-4770
▁Array	-4771
▁rearr	-4772
▁literature	-4773
PE	-4774
ands	-4775
orest	-4776
▁Lily	-4777
▁ancient	-4778
▁genetic	-4779
▁sustainability	-4780
-19	-4781
▁cos	-4782
choice	-4783
▁began	-4784
▁degree	-4785
▁der	-4786
idge	-4787
▁sizes	-4788
▁header	-4789
▁videos	-4790
▁articles	-4791
▁translation	-4792
pecially	-4793
ocity	-4794
▁lowercase	-4795
▁#{	-4796
rror	-4797
gment	-4798
▁river	-4799
▁significantly	-4800
Des	-4801
plate	-4802
{\	-4803
oded	-4804
▁Main	-4805
▁send	-4806
▁appreci	-4807
▁cups	-4808
fall	-4809
▁vill	-4810
arry	-4811
▁presence	-4812
▁adventure	-4813
cm	-4814
▁eat	-4815
effect	-4816
▁entertain	-4817
▁intricate	-4818
▁especially	-4819
▁Enc	-4820
▁directly	-4821
▁generating	-4822
img	-4823
▁weak	-4824
▁"1	-4825
ades	-4826
▁calories	-4827
▁saw	-4828
▁felt	-4829
▁titles	-4830
▁achiev	-4831
eat	-4832
▁hypothe	-4833
|------------	-4834
asp	-4835
▁slog	-4836
▁documents	-4837
idents	-4838
▁representing	-4839
www	-4840
▁earth	-4841
▁records	-4842
▁webpage	-4843
ae	-4844
ley	-4845
▁layers	-4846
▁Act	-4847
▁joy	-4848
▁vast	-4849
ref	-4850
▁cards	-4851
▁causes	-4852
▁module	-4853
▁outputs	-4854
Cont	-4855
▁ann	-4856
▁Compare	-4857
verse	-4858
▁damage	-4859
▁risks	-4860
▁benefit	-4861
df	-4862
▁Brit	-4863
▁Prom	-4864
▁specifically	-4865
Number	-4866
▁orders	-4867
▁Suppose	-4868
sing	-4869
▁logo	-4870
▁motion	-4871
ibonacci	-4872
oxide	-4873
▁Impro	-4874
▁respond	-4875
▁Why	-4876
▁hom	-4877
▁pairs	-4878
▁conversation	-4879
ta	-4880
▁};	-4881
Map	-4882
valu	-4883
▁align	-4884
▁formed	-4885
▁Pe	-4886
▁requests	-4887
▁categorize	-4888
lor	-4889
▁float	-4890
▁verbs	-4891
▁datasets	-4892
[1]	-4893
▁yog	-4894
▁Stud	-4895
40	-4896
▁organized	-4897
▁sil	-4898
▁King	-4899
▁anxiety	-4900
▁kn	-4901
adr	-4902
▁vegan	-4903
allel	-4904
▁neighb	-4905
heit	-4906
matrix	-4907
▁estim	-4908
▁nodes	-4909
ession	-4910
▁indicates	-4911
hors	-4912
▁molec	-4913
▁assigned	-4914
▁Math	-4915
▁wall	-4916
renheit	-4917
▁tells	-4918
▁driving	-4919
▁Incre	-4920
▁analytics	-4921
ugg	-4922
anch	-4923
author	-4924
▁micro	-4925
▁exchange	-4926
la	-4927
eth	-4928
▁establish	-4929
New	-4930
▁guess	-4931
▁commands	-4932
uly	-4933
▁Celsius	-4934
▁battery	-4935
▁0.5	-4936
▁detection	-4937
▁focused	-4938
itter	-4939
▁overcome	-4940
▁calculations	-4941
ept	-4942
augh	-4943
requ	-4944
▁properly	-4945
▁successfully	-4946
Bl	-4947
js	-4948
hol	-4949
emale	-4950
▁Inter	-4951
▁Plan	-4952
dec	-4953
▁Cost	-4954
▁narr	-4955
script	-4956
▁combine	-4957
▁consists	-4958
▁improvement	-4959
▁implications	-4960
asc	-4961
sect	-4962
▁500	-4963
▁Par	-4964
▁situations	-4965
▁Do	-4966
▁dividing	-4967
▁creatures	-4968
▁kit	-4969
▁informed	-4970
▁presentation	-4971
▁ax	-4972
▁integrate	-4973
▁conversion	-4974
▁Aut	-4975
▁spend	-4976
▁stage	-4977
▁applied	-4978
ault	-4979
tenance	-4980
▁orange	-4981
CH	-4982
LTK	-4983
▁idi	-4984
▁carry	-4985
storm	-4986
▁weights	-4987
▁descriptions	-4988
org	-4989
arian	-4990
▁skin	-4991
UM	-4992
▁spaces	-4993
▁\(	-4994
hern	-4995
▁domain	-4996
▁filtered	-4997
tains	-4998
encing	-4999
▁topics	-5000
▁Di	-5001
▁pen	-5002
▁winter	-5003
▁walking	-5004
▁descriptive	-5005
HTML	-5006
eras	-5007
▁collected	-5008
▁principles	-5009
gricult	-5010
rig	-5011
▁monit	-5012
▁habitat	-5013
2:	-5014
(0,	-5015
asy	-5016
▁Tom	-5017
▁practical	-5018
iol	-5019
▁vowels	-5020
▁Microsoft	-5021
▁danger	-5022
▁keyword	-5023
▁identity	-5024
"))	-5025
where	-5026
▁Type	-5027
▁insp	-5028
▁feelings	-5029
ums	-5030
code	-5031
▁spent	-5032
▁solving	-5033
▁namespace	-5034
Node	-5035
▁ran	-5036
▁fraud	-5037
connect	-5038
▁accept	-5039
▁nil	-5040
frame	-5041
▁tow	-5042
ibilities	-5043
▁exploring	-5044
▁Me	-5045
▁grid	-5046
▁lived	-5047
▁fiction	-5048
▁musical	-5049
next	-5050
▁outcome	-5051
▁synonym	-5052
OU	-5053
Table	-5054
▁memor	-5055
▁classic	-5056
len	-5057
▁80	-5058
▁<!	-5059
anged	-5060
▁celebr	-5061
▁literary	-5062
strictions	-5063
Ad	-5064
▁plans	-5065
▁advanc	-5066
▁expand	-5067
▁reference	-5068
"),	-5069
usion	-5070
▁mode	-5071
oons	-5072
ipping	-5073
▁longest	-5074
▁magical	-5075
▁highlights	-5076
vest	-5077
▁goods	-5078
ler	-5079
utton	-5080
▁exactly	-5081
▁prioritize	-5082
erns	-5083
merce	-5084
▁groc	-5085
▁garlic	-5086
▁dioxide	-5087
▁attribute	-5088
▁composition	-5089
def	-5090
▁listed	-5091
▁connected	-5092
500	-5093
join	-5094
▁Sun	-5095
▁rot	-5096
Println	-5097
▁policy	-5098
What	-5099
▁haiku	-5100
▁Classify	-5101
▁handling	-5102
▁encoura	-5103
▁utilize	-5104
▁21	-5105
▁shapes	-5106
▁Suggest	-5107
exic	-5108
Al	-5109
▁32	-5110
▁lifest	-5111
▁National	-5112
db	-5113
▁potat	-5114
▁beginning	-5115
▁emphasizes	-5116
▁comfortable	-5117
"],	-5118
▁har	-5119
▁args	-5120
▁coll	-5121
▁noise	-5122
▁scheme	-5123
▁12.	-5124
▁appears	-5125
▁skill	-5126
▁salary	-5127
▁calculation	-5128
▁ju	-5129
▁Water	-5130
▁perspect	-5131
{1	-5132
▁scatter	-5133
▁pronoun	-5134
▁Understand	-5135
▁Health	-5136
▁Process	-5137
▁cleaning	-5138
▁Customer	-5139
sm	-5140
ards	-5141
lower	-5142
▁bank	-5143
▁release	-5144
▁cultures	-5145
▁chocolate	-5146
que	-5147
▁causing	-5148
LL	-5149
ians	-5150
▁reve	-5151
▁communities	-5152
▁cast	-5153
syn	-5154
▁phen	-5155
▁advertising	-5156
phant	-5157
▁clothing	-5158
uth	-5159
ahrenheit	-5160
▁summarize	-5161
▁advantage	-5162
▁candidate	-5163
EN	-5164
ruit	-5165
sorted	-5166
uming	-5167
▁took	-5168
▁dragon	-5169
▁serving	-5170
opt	-5171
▁credit	-5172
▁syllables	-5173
▁suggestions	-5174
▁vibr	-5175
fulness	-5176
▁powder	-5177
▁allowed	-5178
▁numerous	-5179
▁expensive	-5180
▁automatically	-5181
▁Ed	-5182
spec	-5183
tical	-5184
ctic	-5185
bra	-5186
overs	-5187
▁labeled	-5188
▁findings	-5189
olf	-5190
▁23	-5191
▁possess	-5192
▁habits	-5193
▁flu	-5194
▁division	-5195
▁camera	-5196
AM	-5197
rc	-5198
url	-5199
▁pick	-5200
anford	-5201
▁Number	-5202
▁deliver	-5203
cost	-5204
▁plays	-5205
▁savings	-5206
▁aim	-5207
ameter	-5208
ashion	-5209
▁pizza	-5210
duc	-5211
urch	-5212
▁collaboration	-5213
UP	-5214
▁swim	-5215
filter	-5216
▁optimized	-5217
pped	-5218
▁May	-5219
▁Double	-5220
sentiment	-5221
▁capacity	-5222
▁$2	-5223
▁virus	-5224
▁treatment	-5225
ores	-5226
▁dates	-5227
▁psych	-5228
▁resource	-5229
▁scientists	-5230
▁sem	-5231
Length	-5232
oom	-5233
▁El	-5234
2021	-5235
math	-5236
iforn	-5237
opped	-5238
output	-5239
▁consistent	-5240
ister	-5241
ptoms	-5242
▁girl	-5243
▁capabilities	-5244
▁sell	-5245
▁talk	-5246
▁ready	-5247
▁outdoor	-5248
▁produced	-5249
▁precision	-5250
▁vegetable	-5251
SELECT	-5252
▁dance	-5253
▁harm	-5254
▁thing	-5255
▁flight	-5256
▁office	-5257
▁Sal	-5258
▁Display	-5259
urt	-5260
▁Park	-5261
▁morning	-5262
yl	-5263
pping	-5264
▁More	-5265
▁Select	-5266
▁checking	-5267
▁reduction	-5268
▁vehicle	-5269
tra	-5270
▁TV	-5271
▁Keep	-5272
DER	-5273
▁riddle	-5274
▁promoting	-5275
Phone	-5276
▁Date	-5277
▁accel	-5278
▁helped	-5279
arest	-5280
ifornia	-5281
commerce	-5282
ners	-5283
estic	-5284
▁eating	-5285
▁believe	-5286
▁parallel	-5287
▁appearance	-5288
▁Africa	-5289
▁recognize	-5290
▁transaction	-5291
▁Max	-5292
▁hands	-5293
▁cycle	-5294
expected	-5295
▁concerns	-5296
▁frequently	-5297
ensor	-5298
▁mist	-5299
▁visualize	-5300
avors	-5301
ostream	-5302
▁regularly	-5303
▁instruments	-5304
vation	-5305
email	-5306
paren	-5307
-10	-5308
Error	-5309
▁said	-5310
▁breaks	-5311
▁phenomen	-5312
Type	-5313
▁calls	-5314
erb	-5315
▁{'	-5316
▁eye	-5317
arrow	-5318
▁astr	-5319
▁selects	-5320
▁bed	-5321
▁rhyme	-5322
▁incorporates	-5323
ercase	-5324
hib	-5325
▁ic	-5326
▁Both	-5327
▁normal	-5328
iostream	-5329
▁formatting	-5330
▁competition	-5331
Set	-5332
ama	-5333
▁blank	-5334
▁pandas	-5335
▁combined	-5336
▁Val	-5337
▁lack	-5338
▁meat	-5339
][	-5340
ded	-5341
abel	-5342
▁organize	-5343
▁palindrome	-5344
▁conservation	-5345
▁effort	-5346
▁payment	-5347
▁grammar	-5348
▁(3	-5349
▁oven	-5350
ulner	-5351
▁leave	-5352
▁dialog	-5353
▁settings	-5354
fill	-5355
▁warming	-5356
▁nuc	-5357
▁elif	-5358
▁rice	-5359
}.	-5360
bed	-5361
▁"",	-5362
ynthesis	-5363
Color	-5364
orpor	-5365
▁affected	-5366
▁pub	-5367
arative	-5368
▁Intern	-5369
▁sunlight	-5370
▁displayed	-5371
gent	-5372
apple	-5373
lib	-5374
▁enable	-5375
▁browser	-5376
▁profession	-5377
IF	-5378
atus	-5379
▁spending	-5380
▁According	-5381
▁punctuation	-5382
da	-5383
learn	-5384
▁patients	-5385
▁designing	-5386
eli	-5387
aper	-5388
▁nest	-5389
valuate	-5390
kay	-5391
▁hydro	-5392
cat	-5393
▁Its	-5394
▁Gree	-5395
▁attend	-5396
▁layout	-5397
▁received	-5398
▁lifestyle	-5399
▁specifies	-5400
-1)	-5401
edia	-5402
ament	-5403
ought	-5404
14	-5405
▁foreach	-5406
▁squares	-5407
Class	-5408
▁dress	-5409
▁switch	-5410
▁Collect	-5411
gredients	-5412
▁actually	-5413
▁independent	-5414
▁San	-5415
▁happiness	-5416
▁duplic	-5417
▁Specifically	-5418
▁("	-5419
▁ends	-5420
▁wants	-5421
▁simulate	-5422
▁keys	-5423
▁angles	-5424
▁survive	-5425
▁described	-5426
▁90	-5427
ouds	-5428
Product	-5429
▁creation	-5430
▁currently	-5431
▁maintenance	-5432
());	-5433
▁occurren	-5434
▁Fibonacci	-5435
ydr	-5436
▁np	-5437
JSON	-5438
▁fox	-5439
▁positions	-5440
▁evolution	-5441
▁45	-5442
▁rap	-5443
▁elimin	-5444
([	-5445
-4	-5446
alian	-5447
▁Indian	-5448
jpg	-5449
▁gift	-5450
powered	-5451
▁restrictions	-5452
▁er	-5453
▁hex	-5454
▁disp	-5455
▁Smith	-5456
▁coefficient	-5457
▁opin	-5458
vantages	-5459
from	-5460
▁Hint	-5461
inition	-5462
▁organic	-5463
▁particles	-5464
:</	-5465
▁essay	-5466
▁bottom	-5467
▁intensity	-5468
▁Co	-5469
▁fully	-5470
mission	-5471
▁('	-5472
▁dry	-5473
▁goes	-5474
▁central	-5475
▁showcase	-5476
▁${	-5477
▁lyrics	-5478
▁vision	-5479
▁released	-5480
▁sensitive	-5481
entral	-5482
▁shared	-5483
For	-5484
YPE	-5485
off	-5486
digit	-5487
efore	-5488
error	-5489
items	-5490
itational	-5491
▁assume	-5492
▁British	-5493
▁removing	-5494
%.	-5495
:00	-5496
alax	-5497
▁mut	-5498
adject	-5499
imeter	-5500
CA	-5501
very	-5502
▁fiber	-5503
▁breakfast	-5504
▁excellent	-5505
Sh	-5506
Cell	-5507
▁Instead	-5508
▁managing	-5509
▁directory	-5510
▁bold	-5511
▁ideal	-5512
▁storm	-5513
▁woman	-5514
▁afford	-5515
6)	-5516
▁htt	-5517
▁rand	-5518
▁showc	-5519
▁simpl	-5520
▁agricult	-5521
▁alphabetical	-5522
▁environments	-5523
odies	-5524
poses	-5525
▁apps	-5526
▁official	-5527
▁tea	-5528
▁compound	-5529
▁Program	-5530
▁equival	-5531
orrow	-5532
related	-5533
▁slogan	-5534
ashing	-5535
▁Mexic	-5536
▁asked	-5537
▁California	-5538
▁contributions	-5539
orous	-5540
▁crypt	-5541
▁expertise	-5542
▁unexpected	-5543
▁3)	-5544
▁12,	-5545
▁velocity	-5546
▁preferred	-5547
70	-5548
▁death	-5549
▁loops	-5550
.";	-5551
iors	-5552
▁tablesp	-5553
▁memorable	-5554
▁thoughts	-5555
PU	-5556
pi	-5557
arity	-5558
▁customize	-5559
CTYPE	-5560
▁conj	-5561
vector	-5562
▁thick	-5563
▁--	-5564
▁absor	-5565
DOCTYPE	-5566
▁arguments	-5567
▁scenarios	-5568
▁36	-5569
▁Day	-5570
▁});	-5571
▁attacks	-5572
8)	-5573
▁utilized	-5574
▁")	-5575
▁late	-5576
▁coast	-5577
▁glass	-5578
▁trade	-5579
▁produces	-5580
▁container	-5581
▁coordinates	-5582
▁manufacturing	-5583
bing	-5584
gener	-5585
▁spir	-5586
berries	-5587
▁island	-5588
predict	-5589
iny	-5590
▁execute	-5591
▁physics	-5592
▁multiplying	-5593
▁Gr	-5594
▁Austr	-5595
ometric	-5596
▁concaten	-5597
▁timeline	-5598
late	-5599
▁fear	-5600
▁subs	-5601
▁trig	-5602
requency	-5603
▁landmark	-5604
▁u	-5605
▁jo	-5606
netic	-5607
▁deeper	-5608
▁vulner	-5609
▁repeated	-5610
▁ASC	-5611
▁salad	-5612
▁20,	-5613
▁ride	-5614
▁occurs	-5615
osis	-5616
▁reduced	-5617
phrase	-5618
Sentence	-5619
conomic	-5620
▁flower	-5621
ById	-5622
▁202	-5623
▁moves	-5624
▁roots	-5625
▁statistics	-5626
▁opportunity	-5627
▁cin	-5628
▁coding	-5629
▁gam	-5630
create	-5631
▁finally	-5632
OR	-5633
[:	-5634
itors	-5635
customer	-5636
Your	-5637
Hello	-5638
ercise	-5639
▁nutrients	-5640
omin	-5641
▁fair	-5642
▁achieving	-5643
Key	-5644
erts	-5645
ivot	-5646
▁2020	-5647
▁humidity	-5648
▁realized	-5649
▁Dep	-5650
▁mys	-5651
align	-5652
which	-5653
▁inventory	-5654
▁Mat	-5655
▁ther	-5656
coming	-5657
eral	-5658
▁1/4	-5659
▁fro	-5660
under	-5661
▁came	-5662
▁Lastly	-5663
▁recycling	-5664
▁constraint	-5665
ithmetic	-5666
▁nu	-5667
▁slice	-5668
▁Assuming	-5669
▁narrative	-5670
VID	-5671
▁7:	-5672
ector	-5673
▁reads	-5674
cap	-5675
orem	-5676
▁studies	-5677
▁GDP	-5678
getElement	-5679
▁landscape	-5680
▁educational	-5681
▁construction	-5682
201	-5683
▁propos	-5684
(1,	-5685
▁NLTK	-5686
nesses	-5687
message	-5688
▁learned	-5689
getElementById	-5690
ilder	-5691
▁cris	-5692
▁Paris	-5693
▁later	-5694
▁predicted	-5695
dep	-5696
▁org	-5697
abases	-5698
▁influenced	-5699
orough	-5700
▁passive	-5701
axis	-5702
▁international	-5703
bu	-5704
▁Simplify	-5705
population	-5706
GB	-5707
▁Moon	-5708
▁wonder	-5709
empt	-5710
▁11.	-5711
iances	-5712
▁codes	-5713
▁iPhone	-5714
ka	-5715
Math	-5716
▁Wind	-5717
▁faced	-5718
▁flexibility	-5719
EO	-5720
▁True	-5721
▁window	-5722
push	-5723
▁Bra	-5724
▁ath	-5725
▁conven	-5726
▁Despite	-5727
umin	-5728
▁rom	-5729
▁medic	-5730
ops	-5731
▁kg	-5732
▁sandw	-5733
quantity	-5734
▁ratings	-5735
My	-5736
itar	-5737
▁organisms	-5738
etime	-5739
▁equivalent	-5740
cor	-5741
▁ep	-5742
values	-5743
▁emails	-5744
▁satisfy	-5745
▁Fahrenheit	-5746
otic	-5747
▁immed	-5748
KE	-5749
▁headline	-5750
▁purposes	-5751
▁authentication	-5752
▁son	-5753
▁sold	-5754
▁inches	-5755
▁researc	-5756
arter	-5757
first	-5758
▁quadr	-5759
ecurity	-5760
▁sensors	-5761
▁cro	-5762
▁yet	-5763
▁join	-5764
ishing	-5765
phones	-5766
▁broad	-5767
▁roles	-5768
▁clouds	-5769
▁ultimately	-5770
▁serve	-5771
▁printed	-5772
▁meditation	-5773
▁variations	-5774
Bu	-5775
▁Exp	-5776
▁finance	-5777
▁passion	-5778
▁planets	-5779
▁innovation	-5780
ronic	-5781
angular	-5782
▁attack	-5783
▁readers	-5784
▁campaigns	-5785
▁purchases	-5786
rec	-5787
rown	-5788
▁Import	-5789
▁println	-5790
▁van	-5791
▁door	-5792
urance	-5793
▁estimated	-5794
▁increases	-5795
▁treasure	-5796
It	-5797
.");	-5798
▁Our	-5799
▁farm	-5800
format	-5801
▁department	-5802
▁functional	-5803
▁Air	-5804
ommod	-5805
orking	-5806
▁heavy	-5807
▁cit	-5808
▁mis	-5809
Input	-5810
▁served	-5811
▁changed	-5812
▁prepare	-5813
▁monitoring	-5814
fo	-5815
▁ol	-5816
umps	-5817
▁Face	-5818
▁parent	-5819
▁Revolution	-5820
hers	-5821
▁que	-5822
holders	-5823
▁deploy	-5824
▁Cloud	-5825
▁deviation	-5826
▁objective	-5827
'),	-5828
chen	-5829
▁Who	-5830
▁edge	-5831
▁Before	-5832
▁stories	-5833
▁symptoms	-5834
▁hypothesis	-5835
▁grammatically	-5836
CD	-5837
appy	-5838
osed	-5839
▁tab	-5840
▁init	-5841
▁immers	-5842
▁fashion	-5843
▁difficulty	-5844
▁Bay	-5845
▁hit	-5846
going	-5847
▁depends	-5848
▁picture	-5849
Sub	-5850
venue	-5851
▁sheet	-5852
▁stands	-5853
▁gravitational	-5854
craft	-5855
olute	-5856
▁front	-5857
$,	-5858
2}	-5859
host	-5860
ilos	-5861
▁inj	-5862
▁loved	-5863
cles	-5864
▁twist	-5865
replace	-5866
▁Replace	-5867
unk	-5868
▁Br	-5869
ague	-5870
▁highlighting	-5871
▁channels	-5872
fs	-5873
▁Mod	-5874
▁civil	-5875
▁arithmetic	-5876
▁restaurants	-5877
▁movements	-5878
▁"\	-5879
with	-5880
prime	-5881
▁engines	-5882
▁databases	-5883
▁exercises	-5884
▁Asia	-5885
▁Will	-5886
▁decrease	-5887
▁presented	-5888
comm	-5889
▁src	-5890
stance	-5891
▁discovered	-5892
▁interaction	-5893
▁similarities	-5894
▁DNA	-5895
▁Extract	-5896
▁username	-5897
▁grammatical	-5898
▁substitute	-5899
▁entertainment	-5900
▁legs	-5901
▁fight	-5902
▁quote	-5903
amental	-5904
▁Evaluate	-5905
▁Personal	-5906
▁awareness	-5907
aks	-5908
▁UI	-5909
▁Not	-5910
▁pip	-5911
▁launch	-5912
▁consumer	-5913
alia	-5914
▁expressed	-5915
▁approaches	-5916
lin	-5917
noun	-5918
country	-5919
▁Object	-5920
▁extreme	-5921
▁automate	-5922
▁generally	-5923
dient	-5924
▁Many	-5925
▁wear	-5926
orders	-5927
itement	-5928
▁greatest	-5929
OT	-5930
ara	-5931
▁liqu	-5932
▁route	-5933
▁Germany	-5934
▁Don	-5935
▁gluten	-5936
ographics	-5937
tein	-5938
▁growing	-5939
▁advancements	-5940
▁fur	-5941
ulated	-5942
▁metal	-5943
▁worked	-5944
▁simplify	-5945
lete	-5946
Total	-5947
▁worth	-5948
category	-5949
▁distributed	-5950
used	-5951
reats	-5952
▁hair	-5953
▁Ocean	-5954
▁During	-5955
▁obtained	-5956
▁assistance	-5957
▁ple	-5958
▁isol	-5959
▁bound	-5960
▁imagery	-5961
▁thorough	-5962
ifth	-5963
▁notable	-5964
▁encrypted	-5965
▁11,	-5966
iture	-5967
▁manager	-5968
▁fraction	-5969
▁exception	-5970
▁specialized	-5971
aight	-5972
▁anyone	-5973
▁Firstly	-5974
source	-5975
▁idiom	-5976
▁vivid	-5977
():	-5978
▁Twitter	-5979
▁reaction	-5980
sin	-5981
▁wat	-5982
▁Build	-5983
▁puzzles	-5984
▁minimize	-5985
pes	-5986
cutive	-5987
forest	-5988
▁careful	-5989
Size	-5990
▁Alice	-5991
▁horiz	-5992
▁circum	-5993
▁nearest	-5994
▁sharing	-5995
▁dimensions	-5996
▁navigation	-5997
cir	-5998
▁craft	-5999
boh	-6000
▁ment	-6001
▁Japanese	-6002
▁strengths	-6003
▁consideration	-6004
scale	-6005
▁Char	-6006
▁underlying	-6007
$.	-6008
sql	-6009
▁hob	-6010
itary	-6011
orate	-6012
▁neutral	-6013
▁conveys	-6014
▁opening	-6015
▁studying	-6016
▁seeds	-6017
▁desk	-6018
▁retrieves	-6019
open	-6020
▁returned	-6021
▁Construct	-6022
bohydr	-6023
do	-6024
gl	-6025
▁Cat	-6026
▁looks	-6027
vironment	-6028
▁lighting	-6029
Get	-6030
fig	-6031
▁Gl	-6032
▁shel	-6033
▁mo	-6034
▁tokens	-6035
▁passage	-6036
▁utilizing	-6037
▁manipulate	-6038
^2)	-6039
olved	-6040
▁MySQL	-6041
▁willing	-6042
▁extracted	-6043
zer	-6044
▁22	-6045
▁attempt	-6046
▁compares	-6047
▁vacation	-6048
▁generation	-6049
98	-6050
city	-6051
▁straight	-6052
rist	-6053
elihood	-6054
▁charts	-6055
▁parents	-6056
▁$5	-6057
▁5-	-6058
▁Play	-6059
ractions	-6060
▁pricing	-6061
htag	-6062
anner	-6063
imals	-6064
valid	-6065
▁whose	-6066
▁giving	-6067
▁grocery	-6068
▁";	-6069
ires	-6070
▁got	-6071
▁Remove	-6072
▁template	-6073
▁popularity	-6074
▁exploration	-6075
TTP	-6076
iments	-6077
▁heard	-6078
▁passed	-6079
▁continues	-6080
▁continuous	-6081
▁characterized	-6082
▁Spe	-6083
▁tall	-6084
▁posts	-6085
ults	-6086
▁gall	-6087
▁spin	-6088
▁friendly	-6089
▁Technology	-6090
]:	-6091
"},	-6092
▁Blue	-6093
▁alone	-6094
▁Second	-6095
▁config	-6096
▁kilomet	-6097
▁European	-6098
▁href	-6099
▁leads	-6100
▁incent	-6101
▁stunning	-6102
▁smartphone	-6103
▁%>	-6104
▁Hy	-6105
▁App	-6106
active	-6107
select	-6108
▁wealth	-6109
)`	-6110
true	-6111
▁Okay	-6112
▁urban	-6113
▁accommod	-6114
▁captures	-6115
_1	-6116
▁bon	-6117
ossil	-6118
▁trend	-6119
plements	-6120
▁currency	-6121
▁##	-6122
plied	-6123
▁soon	-6124
▁balls	-6125
▁analog	-6126
▁lowest	-6127
infor	-6128
orter	-6129
▁onto	-6130
▁stir	-6131
ightly	-6132
▁repeat	-6133
▁wanted	-6134
piration	-6135
▁remains	-6136
▁simulation	-6137
angered	-6138
▁belongs	-6139
▁2021	-6140
ste	-6141
ysical	-6142
▁links	-6143
▁songs	-6144
▁vowel	-6145
▁leaving	-6146
▁graphics	-6147
▁offering	-6148
▁fundamental	-6149
▁spo	-6150
AS	-6151
"></	-6152
▁Bar	-6153
▁dinner	-6154
▁robots	-6155
▁integration	-6156
mod	-6157
▁Ag	-6158
▁Pres	-6159
▁vert	-6160
cussion	-6161
▁counter	-6162
▁forecast	-6163
>"	-6164
▁Up	-6165
▁Educ	-6166
▁Loop	-6167
▁jobs	-6168
▁Green	-6169
▁COVID	-6170
▁Shell	-6171
▁shift	-6172
▁segment	-6173
▁continued	-6174
vis	-6175
▁15,	-6176
stream	-6177
▁House	-6178
▁affects	-6179
▁foreign	-6180
▁lengths	-6181
▁univers	-6182
1010	-6183
▁marine	-6184
▁participants	-6185
▁27	-6186
▁ut	-6187
▁ASCII	-6188
Content	-6189
gestion	-6190
▁marbles	-6191
▁Examples	-6192
File	-6193
elcome	-6194
▁Final	-6195
▁grams	-6196
▁basketball	-6197
:**	-6198
▁Her	-6199
close	-6200
▁Inte	-6201
▁magn	-6202
▁tend	-6203
▁flavors	-6204
▁behaviors	-6205
▁prediction	-6206
▁accessibility	-6207
iam	-6208
▁Div	-6209
▁coc	-6210
▁Group	-6211
▁begins	-6212
[2	-6213
anas	-6214
▁calm	-6215
▁rank	-6216
▁grand	-6217
▁visitors	-6218
udd	-6219
▁pad	-6220
▁atomic	-6221
your	-6222
▁Min	-6223
▁Organ	-6224
ulating	-6225
▁Incorpor	-6226
▁mountains	-6227
▁predictive	-6228
▁finds	-6229
▁Canada	-6230
▁Italian	-6231
▁consecutive	-6232
icks	-6233
▁sad	-6234
rooms	-6235
each	-6236
current	-6237
▁primarily	-6238
▁cube	-6239
button	-6240
▁Prompt	-6241
▁flexible	-6242
▁furn	-6243
▁perm	-6244
▁hiking	-6245
▁recipes	-6246
▁reflects	-6247
Out	-6248
▁Gra	-6249
▁Moreover	-6250
▁rectangle	-6251
▁photosynthesis	-6252
FF	-6253
icate	-6254
▁False	-6255
▁instit	-6256
▁powers	-6257
▁submit	-6258
▁AB	-6259
▁excel	-6260
▁conson	-6261
(3	-6262
Per	-6263
content	-6264
▁compute	-6265
▁survival	-6266
▁bike	-6267
▁slope	-6268
▁reward	-6269
▁meaningful	-6270
PL	-6271
▁muse	-6272
rating	-6273
▁boost	-6274
ien	-6275
rene	-6276
▁100,	-6277
▁crack	-6278
▁societ	-6279
▁kingdom	-6280
▁structured	-6281
ief	-6282
▁Initial	-6283
55	-6284
Score	-6285
▁____	-6286
▁cooked	-6287
▁buildings	-6288
▁similarity	-6289
pers	-6290
▁dru	-6291
inger	-6292
▁Area	-6293
▁chopped	-6294
▁breakdown	-6295
16	-6296
sal	-6297
▁Ens	-6298
ancis	-6299
▁surpr	-6300
▁satisfies	-6301
AG	-6302
aim	-6303
▁net	-6304
agers	-6305
▁fifth	-6306
state	-6307
▁West	-6308
▁Color	-6309
▁Character	-6310
▁recommendation	-6311
▁neur	-6312
▁lights	-6313
▁resist	-6314
▁signal	-6315
ls	-6316
▁“	-6317
(1)	-6318
▁Web	-6319
Frame	-6320
event	-6321
▁drop	-6322
▁sensory	-6323
▁Facebook	-6324
▁rob	-6325
▁quiz	-6326
▁reput	-6327
distance	-6328
▁threats	-6329
oses	-6330
ocate	-6331
▁chance	-6332
▁compat	-6333
▁Perform	-6334
▁mitigate	-6335
▁conditional	-6336
SER	-6337
vas	-6338
▁Ve	-6339
▁fly	-6340
▁packages	-6341
▁excitement	-6342
AN	-6343
ails	-6344
area	-6345
▁Ook	-6346
▁didn	-6347
height	-6348
Rec	-6349
roid	-6350
gative	-6351
▁ORDER	-6352
▁figures	-6353
▁couldn	-6354
▁retail	-6355
▁analyzed	-6356
▁Hum	-6357
itely	-6358
Le	-6359
dimens	-6360
▁rapid	-6361
▁Commun	-6362
AI	-6363
▁Sk	-6364
arsh	-6365
▁runs	-6366
reshold	-6367
▁End	-6368
search	-6369
▁sight	-6370
▁Access	-6371
▁formal	-6372
▁absolute	-6373
▁mechanisms	-6374
usi	-6375
▁km	-6376
arget	-6377
asted	-6378
check	-6379
otion	-6380
▁Definition	-6381
ULL	-6382
main	-6383
▁mammals	-6384
▁passing	-6385
▁appliances	-6386
\_	-6387
aspoon	-6388
}"	-6389
rupt	-6390
Label	-6391
▁Emily	-6392
tokenize	-6393
▁Introdu	-6394
35	-6395
tab	-6396
una	-6397
▁Jane	-6398
▁legal	-6399
▁Analysis	-6400
▁molecules	-6401
lock	-6402
rows	-6403
▁Bre	-6404
faces	-6405
▁quadratic	-6406
gex	-6407
mov	-6408
ilit	-6409
▁balanced	-6410
▁electronic	-6411
Fe	-6412
asm	-6413
▁nearby	-6414
▁periods	-6415
▁dialogue	-6416
▁discovery	-6417
Sort	-6418
inese	-6419
1:	-6420
ogram	-6421
object	-6422
▁meals	-6423
▁experienced	-6424
ilies	-6425
pathy	-6426
▁jump	-6427
▁Francis	-6428
▁teaspoon	-6429
888,888,888,888,	-6430
▁APIs	-6431
▁ages	-6432
▁billion	-6433
orph	-6434
▁agre	-6435
amount	-6436
▁revers	-6437
Ap	-6438
edom	-6439
▁Cur	-6440
▁spot	-6441
▁enth	-6442
▁workout	-6443
▁uppercase	-6444
.)	-6445
▁aw	-6446
▁%>%	-6447
▁flag	-6448
▁cou	-6449
▁mig	-6450
trained	-6451
character	-6452
ool	-6453
oller	-6454
reprene	-6455
▁rights	-6456
pervised	-6457
▁Processing	-6458
CHAR	-6459
cher	-6460
▁stem	-6461
▁writer	-6462
▁Correct	-6463
▁Regular	-6464
▁Well	-6465
▁apart	-6466
▁monthly	-6467
CO	-6468
olit	-6469
▁hous	-6470
▁viol	-6471
▁solid	-6472
▁implements	-6473
All	-6474
bled	-6475
root	-6476
inder	-6477
▁expon	-6478
▁resil	-6479
▁fossil	-6480
response	-6481
▁vibrant	-6482
iday	-6483
▁sod	-6484
▁copy	-6485
▁straw	-6486
▁frequent	-6487
▁clustering	-6488
▁describing	-6489
▁Ab	-6490
▁II	-6491
ROUP	-6492
icket	-6493
month	-6494
▁workers	-6495
.*	-6496
mal	-6497
▁0:	-6498
▁<?	-6499
▁url	-6500
▁sorts	-6501
▁utilizes	-6502
eted	-6503
▁gases	-6504
▁concent	-6505
▁cutting	-6506
}\	-6507
rab	-6508
airs	-6509
iant	-6510
books	-6511
▁wait	-6512
▁weigh	-6513
'],	-6514
▁(`	-6515
Price	-6516
ecute	-6517
▁decide	-6518
▁potentially	-6519
base	-6520
entle	-6521
▁nested	-6522
mean	-6523
erious	-6524
▁Title	-6525
▁beans	-6526
usiness	-6527
▁Tensor	-6528
▁proced	-6529
▁percussion	-6530
▁Tell	-6531
▁kitchen	-6532
▁priority	-6533
▁performed	-6534
▁validation	-6535
▁populations	-6536
cos	-6537
Cost	-6538
▁limitations	-6539
▁becoming	-6540
uries	-6541
▁anti	-6542
▁bear	-6543
ackage	-6544
▁weeks	-6545
written	-6546
▁keeping	-6547
unte	-6548
▁homes	-6549
stances	-6550
▁placed	-6551
▁printing	-6552
▁illustrate	-6553
▁demographic	-6554
▁bad	-6555
▁Core	-6556
▁impress	-6557
▁Improved	-6558
EAEBEAEBEAEBEAEB	-6559
ev	-6560
oors	-6561
▁fits	-6562
speech	-6563
▁wings	-6564
▁forests	-6565
▁prepared	-6566
▁formatted	-6567
▁Description	-6568
Net	-6569
▁capable	-6570
","	-6571
ruby	-6572
heses	-6573
▁Return	-6574
▁entity	-6575
▁transition	-6576
iers	-6577
▁gets	-6578
strong	-6579
▁Input	-6580
▁juice	-6581
▁ending	-6582
notation	-6583
▁converting	-6584
ugging	-6585
▁forces	-6586
▁street	-6587
ophistic	-6588
username	-6589
▁technological	-6590
":"	-6591
▁rad	-6592
▁poly	-6593
▁susp	-6594
Random	-6595
▁Mexico	-6596
▁believed	-6597
▁searching	-6598
▁confidence	-6599
bine	-6600
mary	-6601
▁asks	-6602
▁tomatoes	-6603
▁Sentiment	-6604
▁customized	-6605
▁py	-6606
▁hashtag	-6607
▁modeling	-6608
▁scientist	-6609
▁liquid	-6610
▁filters	-6611
▁storing	-6612
(2)	-6613
▁HTTP	-6614
▁helping	-6615
ipitation	-6616
▁exciting	-6617
▁corrected	-6618
temperature	-6619
▁visualizations	-6620
erg	-6621
ios	-6622
▁sin	-6623
▁download	-6624
▁terrain	-6625
alk	-6626
▁70	-6627
Fact	-6628
▁wine	-6629
▁vitamin	-6630
▁Exercise	-6631
▁Francisco	-6632
7)	-6633
BA	-6634
▁q	-6635
▁15.	-6636
omial	-6637
▁clue	-6638
factor	-6639
▁Union	-6640
▁floor	-6641
▁village	-6642
▁Ingredients	-6643
123	-6644
iple	-6645
▁His	-6646
Child	-6647
▁exhib	-6648
▁Creating	-6649
▁targeted	-6650
})	-6651
▁$$	-6652
▁28	-6653
dict	-6654
▁Roman	-6655
▁classifier	-6656
▁evaluation	-6657
▁expectations	-6658
rot	-6659
▁lux	-6660
▁null	-6661
▁potatoes	-6662
▁objectives	-6663
group	-6664
▁band	-6665
▁guests	-6666
▁Network	-6667
:"	-6668
').	-6669
▁amb	-6670
▁held	-6671
▁perimeter	-6672
▁competitive	-6673
std	-6674
▁35	-6675
▁listen	-6676
▁African	-6677
ubble	-6678
▁prey	-6679
amless	-6680
marize	-6681
▁Greek	-6682
▁magic	-6683
formation	-6684
igen	-6685
▁formation	-6686
gar	-6687
▁(4	-6688
▁core	-6689
▁fetch	-6690
66	-6691
▁(5	-6692
ancy	-6693
last	-6694
▁desert	-6695
▁privacy	-6696
ups	-6697
serv	-6698
backs	-6699
▁Gold	-6700
▁River	-6701
▁gradu	-6702
▁sections	-6703
pat	-6704
blue	-6705
article	-6706
▁guitar	-6707
▁sandwich	-6708
▁instances	-6709
orge	-6710
veled	-6711
▁Best	-6712
▁wire	-6713
▁Compose	-6714
▁gravity	-6715
▁profile	-6716
▁professionals	-6717
▁tu	-6718
▁Bob	-6719
▁mile	-6720
cement	-6721
▁olive	-6722
▁blocks	-6723
▁formats	-6724
▁5)	-6725
▁counts	-6726
▁nutrient	-6727
▁immersive	-6728
▁leadership	-6729
=1	-6730
DF	-6731
amily	-6732
rought	-6733
▁pivot	-6734
advantages	-6735
▁phenomenon	-6736
Flow	-6737
food	-6738
▁Age	-6739
ambda	-6740
▁cart	-6741
▁decor	-6742
▁fuels	-6743
▁resolution	-6744
fmt	-6745
wind	-6746
geles	-6747
▁race	-6748
▁facts	-6749
▁Chinese	-6750
▁seamless	-6751
XML	-6752
trol	-6753
orient	-6754
▁camping	-6755
▁transparen	-6756
abol	-6757
▁Mus	-6758
▁elab	-6759
▁proport	-6760
▁intended	-6761
▁likelihood	-6762
▁Harry	-6763
▁relig	-6764
▁attractions	-6765
Reg	-6766
bol	-6767
▁[1,	-6768
▁initi	-6769
▁sophistic	-6770
nic	-6771
▁inquir	-6772
▁generator	-6773
▁===	-6774
▁lazy	-6775
direct	-6776
double	-6777
▁outli	-6778
▁stake	-6779
▁assumes	-6780
bohydrates	-6781
▁Att	-6782
▁Rome	-6783
ansion	-6784
▁native	-6785
▁tasked	-6786
mp	-6787
▁Opt	-6788
▁dro	-6789
alaxy	-6790
▁fixed	-6791
▁truth	-6792
▁Contin	-6793
▁banana	-6794
▁reinfor	-6795
▁uncover	-6796
niv	-6797
tes	-6798
▁$3	-6799
▁(-	-6800
▁pros	-6801
▁temp	-6802
▁Click	-6803
▁truly	-6804
ropical	-6805
▁Ensure	-6806
▁philos	-6807
▁reduces	-6808
▁IN	-6809
▁Two	-6810
erals	-6811
▁crop	-6812
▁yoga	-6813
▁Energy	-6814
▁rewards	-6815
▁national	-6816
▁purchasing	-6817
▁burn	-6818
▁artist	-6819
▁slic	-6820
▁primes	-6821
fly	-6822
▁sy	-6823
Path	-6824
aught	-6825
▁wave	-6826
▁graphs	-6827
▁outline	-6828
Sp	-6829
ato	-6830
Image	-6831
endar	-6832
ondon	-6833
urpose	-6834
▁stack	-6835
▁connections	-6836
▁surrounding	-6837
mented	-6838
▁precise	-6839
▁slightly	-6840
Rate	-6841
sample	-6842
▁Pract	-6843
▁cyber	-6844
▁sunset	-6845
▁qualities	-6846
▁hear	-6847
ARCHAR	-6848
porary	-6849
▁Enter	-6850
▁Their	-6851
▁mouse	-6852
▁catchy	-6853
▁golden	-6854
▁saying	-6855
▁estimate	-6856
▁acceleration	-6857
/2)	-6858
▁Lin	-6859
▁shad	-6860
▁schema	-6861
▁selling	-6862
▁shipping	-6863
Fl	-6864
asts	-6865
▁shoes	-6866
lectric	-6867
▁buying	-6868
▁unknown	-6869
effective	-6870
24	-6871
As	-6872
ishes	-6873
▁repet	-6874
▁gentle	-6875
▁solved	-6876
▁Substit	-6877
▁clearly	-6878
▁courses	-6879
uffle	-6880
▁paint	-6881
▁wider	-6882
▁Employ	-6883
▁Engine	-6884
▁Install	-6885
▁initialize	-6886
leg	-6887
nam	-6888
var	-6889
uous	-6890
ifact	-6891
▁shop	-6892
▁edges	-6893
▁linked	-6894
▁supports	-6895
▁agriculture	-6896
swift	-6897
▁soup	-6898
▁enthusi	-6899
89	-6900
lim	-6901
heric	-6902
parse	-6903
enefits	-6904
▁branch	-6905
ustomers	-6906
zil	-6907
▁Fire	-6908
umbled	-6909
▁faces	-6910
▁Include	-6911
▁sou	-6912
▁xml	-6913
▁iron	-6914
▁Split	-6915
▁State	-6916
▁recall	-6917
▁essence	-6918
▁accounts	-6919
▁entities	-6920
▁peaceful	-6921
▁filtering	-6922
dimensional	-6923
▁optimizing	-6924
▁ease	-6925
▁hero	-6926
upation	-6927
▁facial	-6928
▁master	-6929
▁--------	-6930
▁replaced	-6931
▁frameworks	-6932
OIN	-6933
Tag	-6934
fol	-6935
reeze	-6936
▁Year	-6937
▁Exper	-6938
▁spoken	-6939
▁13.	-6940
▁bags	-6941
iction	-6942
▁Black	-6943
▁onion	-6944
▁Visual	-6945
▁melody	-6946
ran	-6947
Year	-6948
▁honey	-6949
ierarch	-6950
▁Online	-6951
▁college	-6952
▁engineer	-6953
▁distances	-6954
85	-6955
▁`$	-6956
ison	-6957
lette	-6958
▁Deep	-6959
▁append	-6960
▁cancer	-6961
▁coming	-6962
▁robust	-6963
▁Angeles	-6964
(_	-6965
▁Py	-6966
Trans	-6967
▁female	-6968
▁excited	-6969
▁electrical	-6970
sed	-6971
DDDD	-6972
▁Na	-6973
iner	-6974
node	-6975
organ	-6976
▁NULL	-6977
▁rhyth	-6978
▁equals	-6979
▁affordable	-6980
▁preposition	-6981
bar	-6982
edy	-6983
eric	-6984
▁aid	-6985
acific	-6986
▁Inside	-6987
▁bodies	-6988
▁iconic	-6989
orus	-6990
▁reus	-6991
▁Where	-6992
▁atoms	-6993
atement	-6994
clusive	-6995
)))	-6996
wide	-6997
ocado	-6998
▁Line	-6999
▁conn	-7000
▁Summarize	-7001
Row	-7002
▁?>	-7003
avas	-7004
▁13,	-7005
▁Increased	-7006
▁kilometers	-7007
19	-7008
_2	-7009
enn	-7010
▁"</	-7011
▁boy	-7012
verty	-7013
▁bact	-7014
▁seven	-7015
nection	-7016
plotlib	-7017
▁boolean	-7018
▁East	-7019
▁fine	-7020
illing	-7021
▁romantic	-7022
▁contributed	-7023
▁transformed	-7024
Car	-7025
rat	-7026
▁mac	-7027
▁German	-7028
▁matching	-7029
"`	-7030
rest	-7031
▁site	-7032
▁grade	-7033
▁chronic	-7034
▁Markdown	-7035
▁choosing	-7036
▁performs	-7037
▁furniture	-7038
Par	-7039
\_\_	-7040
▁avg	-7041
▁hon	-7042
▁GROUP	-7043
-9	-7044
berry	-7045
▁dangerous	-7046
iance	-7047
▁Have	-7048
▁colon	-7049
++;	-7050
ait	-7051
▁Ac	-7052
▁IP	-7053
ocab	-7054
▁rely	-7055
▁Conduct	-7056
▁anywhere	-7057
▁tailored	-7058
▁complement	-7059
ago	-7060
cape	-7061
rots	-7062
ruits	-7063
▁Come	-7064
elligent	-7065
▁football	-7066
▁completely	-7067
▁manufactur	-7068
DB	-7069
▁bond	-7070
ossible	-7071
▁insect	-7072
▁perspective	-7073
/3	-7074
outer	-7075
▁twice	-7076
▁battle	-7077
▁spreads	-7078
▁Stanford	-7079
▁meanings	-7080
▁notation	-7081
▁discounts	-7082
onut	-7083
▁Book	-7084
▁varying	-7085
▁Simplifying	-7086
cdot	-7087
▁claim	-7088
▁lever	-7089
avascript	-7090
▁breaking	-7091
Sum	-7092
▁volcan	-7093
▁decrypt	-7094
▁horizon	-7095
▁reached	-7096
▁satisfied	-7097
UT	-7098
ulas	-7099
▁reports	-7100
▁families	-7101
▁relative	-7102
▁workplace	-7103
'])	-7104
Chart	-7105
▁coins	-7106
/4	-7107
]);	-7108
▁&=	-7109
▁);	-7110
▁16,	-7111
ecimal	-7112
▁falls	-7113
▁lingu	-7114
ferences	-7115
23	-7116
▁AR	-7117
▁Big	-7118
driven	-7119
▁Connect	-7120
(2,	-7121
aker	-7122
race	-7123
▁Mac	-7124
ooter	-7125
▁threshold	-7126
▁depression	-7127
emb	-7128
pie	-7129
ander	-7130
azing	-7131
center	-7132
▁threat	-7133
oriented	-7134
efficients	-7135
▁Potter	-7136
language	-7137
▁banking	-7138
▁ranking	-7139
▁Mountain	-7140
▁rearrange	-7141
whel	-7142
certain	-7143
▁facing	-7144
contains	-7145
▁birthday	-7146
▁automation	-7147
enger	-7148
▁acid	-7149
▁deriv	-7150
ameters	-7151
▁tagline	-7152
▁combines	-7153
▁principle	-7154
▁processed	-7155
▁friendship	-7156
{"	-7157
bies	-7158
economic	-7159
function	-7160
▁defining	-7161
▁addresses	-7162
▁mechanics	-7163
>();	-7164
▁bool	-7165
review	-7166
▁spell	-7167
▁maximize	-7168
▁definitely	-7169
quad	-7170
▁Sur	-7171
quare	-7172
Double	-7173
▁breed	-7174
▁shorter	-7175
▁listening	-7176
alph	-7177
acent	-7178
ports	-7179
sales	-7180
▁Serv	-7181
ppings	-7182
▁grass	-7183
▁Review	-7184
▁corpus	-7185
▁contexts	-7186
▁Australia	-7187
"}	-7188
lands	-7189
▁focuses	-7190
▁struggle	-7191
▁elaborate	-7192
Age	-7193
gypt	-7194
ured	-7195
sequence	-7196
?",	-7197
nal	-7198
▁Net	-7199
▁Ren	-7200
▁mal	-7201
▁hint	-7202
▁incred	-7203
▁visible	-7204
▁introduction	-7205
▁psychological	-7206
▁],	-7207
▁ca	-7208
▁analogy	-7209
▁implies	-7210
necessary	-7211
▁consumers	-7212
▁landmarks	-7213
▁showcases	-7214
▁compelling	-7215
▁>>	-7216
java	-7217
link	-7218
▁199	-7219
▁Friend	-7220
▁comfort	-7221
▁intervent	-7222
Mark	-7223
plicit	-7224
▁Univers	-7225
▁VARCHAR	-7226
18	-7227
`:	-7228
nut	-7229
ugh	-7230
Tree	-7231
▁NOT	-7232
lowing	-7233
▁Bayes	-7234
▁genres	-7235
▁designs	-7236
▁overview	-7237
▁stakeholders	-7238
▁determination	-7239
_{	-7240
ACE	-7241
uary	-7242
▁File	-7243
agrams	-7244
▁Sales	-7245
▁dreams	-7246
▁memories	-7247
edge	-7248
such	-7249
▁laws	-7250
ocking	-7251
▁artists	-7252
▁habitats	-7253
URL	-7254
akers	-7255
▁military	-7256
▁spelling	-7257
▁published	-7258
%,	-7259
Are	-7260
rip	-7261
▁14.	-7262
▁Bel	-7263
▁incl	-7264
▁Power	-7265
▁2;	-7266
▁doll	-7267
▁People	-7268
▁headers	-7269
javascript	-7270
▁protection	-7271
^\	-7272
task	-7273
ulary	-7274
ulates	-7275
▁turns	-7276
▁printer	-7277
▁Artificial	-7278
▁mysterious	-7279
▁demographics	-7280
▁increasingly	-7281
EX	-7282
▁jar	-7283
Analy	-7284
local	-7285
▁tech	-7286
icking	-7287
▁guard	-7288
▁stronger	-7289
▁encourages	-7290
gers	-7291
span	-7292
▁Save	-7293
▁fasc	-7294
▁paste	-7295
▁forget	-7296
▁informative	-7297
▁sophisticated	-7298
hy	-7299
rew	-7300
mond	-7301
ocols	-7302
ulent	-7303
▁abstr	-7304
▁imagine	-7305
ocabulary	-7306
CGCGCGCGCGCGCGCG	-7307
exp	-7308
sec	-7309
ields	-7310
▁joke	-7311
▁myth	-7312
▁stim	-7313
▁earli	-7314
▁saved	-7315
▁editor	-7316
▁escape	-7317
▁antonyms	-7318
▁chatbots	-7319
llo	-7320
▁Cap	-7321
plete	-7322
▁decode	-7323
▁internal	-7324
gu	-7325
ube	-7326
▁"-	-7327
▁cash	-7328
ivities	-7329
▁London	-7330
▁desire	-7331
▁vanilla	-7332
▁electrons	-7333
Comp	-7334
orean	-7335
istory	-7336
▁thous	-7337
imeters	-7338
▁tomato	-7339
▁supplies	-7340
ye	-7341
cies	-7342
conn	-7343
▁Ant	-7344
stein	-7345
athered	-7346
perform	-7347
▁mother	-7348
▁recover	-7349
▁contract	-7350
▁formulas	-7351
At	-7352
aked	-7353
idance	-7354
▁Italy	-7355
▁pointer	-7356
▁stability	-7357
▁Preprocess	-7358
▁unnecessary	-7359
Code	-7360
enly	-7361
akespe	-7362
▁soccer	-7363
▁verify	-7364
-------|	-7365
▁boiling	-7366
▁engaged	-7367
▁gradient	-7368
▁traveled	-7369
▁eventually	-7370
▁achievements	-7371
hour	-7372
▁citiz	-7373
▁hyperpar	-7374
65	-7375
utter	-7376
idential	-7377
▁neighbor	-7378
ora	-7379
SERT	-7380
illet	-7381
▁flat	-7382
▁entry	-7383
▁entreprene	-7384
▁PM	-7385
Task	-7386
atin	-7387
Inter	-7388
▁seems	-7389
▁upper	-7390
lements	-7391
▁muscle	-7392
▁sklearn	-7393
png	-7394
rum	-7395
▁Del	-7396
▁Ser	-7397
▁Sir	-7398
names	-7399
▁Soft	-7400
aceted	-7401
▁Initialize	-7402
cell	-7403
stud	-7404
child	-7405
▁toys	-7406
▁alert	-7407
▁covered	-7408
▁protocols	-7409
▁integrated	-7410
▁precipitation	-7411
ED	-7412
▁therap	-7413
▁resistance	-7414
13	-7415
▁Ban	-7416
▁cul	-7417
Model	-7418
▁maps	-7419
▁crime	-7420
▁immedi	-7421
▁looked	-7422
Document	-7423
akespeare	-7424
▁manipulation	-7425
-8	-7426
)^2	-7427
high	-7428
rize	-7429
anches	-7430
▁greeting	-7431
▁TensorFlow	-7432
000,	-7433
umes	-7434
onaut	-7435
▁Mars	-7436
▁grain	-7437
▁lemon	-7438
autiful	-7439
▁Christ	-7440
▁depict	-7441
▁versat	-7442
features	-7443
▁padding	-7444
▁eliminate	-7445
▁weaknesses	-7446
▁determining	-7447
No	-7448
▁Aug	-7449
▁poor	-7450
▁Arctic	-7451
▁driver	-7452
{1}{	-7453
▁pool	-7454
▁domin	-7455
▁raise	-7456
▁artifact	-7457
oT	-7458
det	-7459
oles	-7460
▁toy	-7461
▁JOIN	-7462
▁Linux	-7463
▁Optim	-7464
▁Divide	-7465
▁Repeat	-7466
▁station	-7467
▁inflation	-7468
You	-7469
lee	-7470
PLACE	-7471
Select	-7472
epackage	-7473
▁guidance	-7474
▁exceptional	-7475
Am	-7476
http	-7477
chart	-7478
▁Offer	-7479
▁smell	-7480
▁breeze	-7481
▁mystery	-7482
usepackage	-7483
▁recursive	-7484
▁surroundings	-7485
▁deal	-7486
▁moist	-7487
▁closest	-7488
innerHTML	-7489
▁minerals	-7490
▁occurred	-7491
▁converted	-7492
▁activation	-7493
▁motivation	-7494
tun	-7495
airy	-7496
ceans	-7497
▁metric	-7498
▁Computer	-7499
▁hydrogen	-7500
▁constantly	-7501
▁75	-7502
hand	-7503
▁sour	-7504
▁pasta	-7505
▁default	-7506
▁speaking	-7507
Pos	-7508
yme	-7509
▁__	-7510
radi	-7511
▁crust	-7512
▁evenly	-7513
▁freedom	-7514
▁converts	-7515
77	-7516
mes	-7517
abet	-7518
▁cher	-7519
▁Egypt	-7520
▁https	-7521
▁tried	-7522
▁poverty	-7523
▁comments	-7524
▁established	-7525
no	-7526
▁db	-7527
▁Chall	-7528
▁ahead	-7529
▁sharp	-7530
▁George	-7531
▁annual	-7532
▁pounds	-7533
▁intense	-7534
▁motivated	-7535
▁distinctive	-7536
(-	-7537
oday	-7538
▁sudd	-7539
▁charge	-7540
▁refine	-7541
▁adjacent	-7542
▁responsive	-7543
▁rectangular	-7544
[$	-7545
▁lem	-7546
speed	-7547
uzzle	-7548
▁Russ	-7549
▁Super	-7550
▁tests	-7551
strings	-7552
▁strange	-7553
▁complain	-7554
▁completing	-7555
▁immediately	-7556
OP	-7557
Spe	-7558
draw	-7559
▁Los	-7560
▁tele	-7561
▁Hello	-7562
▁Value	-7563
▁stret	-7564
▁Pacific	-7565
▁arranged	-7566
▁hierarch	-7567
(0.	-7568
▁tsp	-7569
▁hole	-7570
▁poet	-7571
▁adopt	-7572
▁mixed	-7573
▁happen	-7574
▁explains	-7575
▁reliability	-7576
]]	-7577
Str	-7578
fix	-7579
Point	-7580
▁crow	-7581
▁snack	-7582
▁skillet	-7583
▁teaching	-7584
ographical	-7585
▁classroom	-7586
▁preference	-7587
▁mindfulness	-7588
asters	-7589
▁Brazil	-7590
▁Categor	-7591
▁proverb	-7592
ashington	-7593
▁reactions	-7594
32	-7595
green	-7596
▁signs	-7597
req	-7598
▁pi	-7599
cout	-7600
ename	-7601
iders	-7602
▁atom	-7603
▁Brain	-7604
▁phase	-7605
▁spices	-7606
▁continent	-7607
▁messaging	-7608
▁coefficients	-7609
84	-7610
▁cv	-7611
circ	-7612
▁gem	-7613
▁Mary	-7614
▁fest	-7615
▁Could	-7616
aracters	-7617
ominator	-7618
▁Education	-7619
▁execution	-7620
▁Ca	-7621
rets	-7622
▁Cor	-7623
ighter	-7624
▁inner	-7625
▁simile	-7626
▁shortest	-7627
▁emergency	-7628
▁atmospheric	-7629
▁".	-7630
[0].	-7631
▁Tim	-7632
▁arise	-7633
▁closer	-7634
▁adapted	-7635
▁facilit	-7636
(5	-7637
}}	-7638
(25	-7639
dog	-7640
auses	-7641
izable	-7642
▁walls	-7643
database	-7644
▁combining	-7645
ION	-7646
▁29	-7647
▁4)	-7648
▁30,	-7649
▁Str	-7650
▁loud	-7651
▁contr	-7652
▁except	-7653
▁impacted	-7654
▁multiplied	-7655
With	-7656
Gener	-7657
▁club	-7658
▁drinks	-7659
▁spirit	-7660
▁0.1	-7661
outhern	-7662
ustling	-7663
▁beliefs	-7664
MS	-7665
(10	-7666
oves	-7667
▁rol	-7668
insert	-7669
▁clock	-7670
▁labor	-7671
▁enables	-7672
▁overwhel	-7673
▁rainforest	-7674
▁spr	-7675
▁serves	-7676
▁walked	-7677
▁watching	-7678
Met	-7679
atur	-7680
tokens	-7681
▁Spain	-7682
▁advice	-7683
▁factorial	-7684
▁destinations	-7685
▁',	-7686
times	-7687
▁Work	-7688
▁persu	-7689
▁views	-7690
aby	-7691
iger	-7692
pire	-7693
utor	-7694
night	-7695
▁comma	-7696
▁entered	-7697
▁fulfill	-7698
▁massive	-7699
▁decipher	-7700
▁investing	-7701
▁endangered	-7702
▁Put	-7703
▁gaming	-7704
▁narrow	-7705
▁explores	-7706
▁President	-7707
▁mechanism	-7708
▁realistic	-7709
▁appreciate	-7710
US	-7711
▁26	-7712
though	-7713
▁Price	-7714
▁slices	-7715
▁Country	-7716
▁filling	-7717
▁partner	-7718
▁volunte	-7719
authorized	-7720
imp	-7721
▁RAM	-7722
common	-7723
undred	-7724
▁broken	-7725
▁bullet	-7726
▁exceed	-7727
generate	-7728
▁interpre	-7729
▁outliers	-7730
▁duplicates	-7731
▁transformation	-7732
▁{}	-7733
▁Mer	-7734
▁pix	-7735
▁cryst	-7736
▁Animal	-7737
▁societal	-7738
▁classical	-7739
▁metaphors	-7740
▁14,	-7741
▁Fact	-7742
▁minute	-7743
▁ongoing	-7744
▁traveling	-7745
▁Incorporate	-7746
Me	-7747
▁VR	-7748
▁Pat	-7749
habit	-7750
▁Star	-7751
▁tact	-7752
▁arrived	-7753
oli	-7754
▁fr	-7755
▁$100	-7756
▁Form	-7757
emperature	-7758
▁separated	-7759
▁generations	-7760
acc	-7761
ald	-7762
▁hur	-7763
▁norm	-7764
REPLACE	-7765
▁excess	-7766
▁otherwise	-7767
▁philosoph	-7768
▁predicting	-7769
▁specifications	-7770
On	-7771
isp	-7772
▁embed	-7773
▁consisting	-7774
▁identifies	-7775
▁intake	-7776
▁Without	-7777
▁visited	-7778
▁researchers	-7779
just	-7780
▁Ins	-7781
▁sed	-7782
▁100.	-7783
------|	-7784
▁Science	-7785
▁Through	-7786
▁Marketing	-7787
▁Otherwise	-7788
▁radiation	-7789
▁supervised	-7790
fu	-7791
▁dess	-7792
Reader	-7793
▁spect	-7794
▁fascin	-7795
▁modifications	-7796
temp	-7797
▁Bro	-7798
▁SUM	-7799
▁session	-7800
▁controls	-7801
orestation	-7802
▁Instagram	-7803
bow	-7804
och	-7805
pop	-7806
True	-7807
aset	-7808
▁quiet	-7809
feature	-7810
▁arrive	-7811
▁reveal	-7812
pm	-7813
Core	-7814
ester	-7815
▁born	-7816
▁gray	-7817
engers	-7818
▁chess	-7819
letters	-7820
quiring	-7821
weather	-7822
▁rising	-7823
adecimal	-7824
▁executed	-7825
▁measurements	-7826
aj	-7827
bits	-7828
▁1.5	-7829
▁10%	-7830
▁CPU	-7831
points	-7832
scores	-7833
▁necess	-7834
▁branches	-7835
▁observed	-7836
bal	-7837
hav	-7838
sun	-7839
uit	-7840
▁((	-7841
▁aug	-7842
▁teach	-7843
▁canvas	-7844
▁mammal	-7845
▁rhythm	-7846
▁theorem	-7847
▁colorful	-7848
▁providers	-7849
▁recognized	-7850
▁Shakespeare	-7851
tw	-7852
rad	-7853
▁(1,	-7854
▁tom	-7855
▁Store	-7856
▁cipher	-7857
▁disaster	-7858
▁gathered	-7859
▁vitamins	-7860
▁dependent	-7861
▁unauthorized	-7862
Us	-7863
fruit	-7864
sharp	-7865
▁paid	-7866
▁lunch	-7867
▁confirm	-7868
portation	-7869
▁passwords	-7870
▁sometimes	-7871
▁substring	-7872
▁suggested	-7873
IS	-7874
aint	-7875
fish	-7876
oric	-7877
grade	-7878
▁Port	-7879
▁Avoid	-7880
▁laugh	-7881
▁ecosystems	-7882
▁adaptations	-7883
▁Cr	-7884
ABLE	-7885
▁Lim	-7886
alled	-7887
▁himself	-7888
▁vectors	-7889
▁household	-7890
▁corresponds	-7891
▁scalability	-7892
Red	-7893
IMIT	-7894
▁CNN	-7895
▁Dif	-7896
▁Game	-7897
▁pets	-7898
iginal	-7899
▁stick	-7900
▁lesser	-7901
▁sector	-7902
▁failure	-7903
notations	-7904
▁millions	-7905
...	-7906
ica	-7907
oly	-7908
avel	-7909
▁180	-7910
▁diss	-7911
▁lots	-7912
▁peak	-7913
▁quot	-7914
ultane	-7915
▁inspire	-7916
lie	-7917
▁kids	-7918
orthern	-7919
▁closed	-7920
▁stages	-7921
▁desktop	-7922
▁reminder	-7923
▁smartphones	-7924
sk	-7925
tom	-7926
▁Est	-7927
▁imper	-7928
▁corpor	-7929
▁mixing	-7930
▁turned	-7931
▁Environment	-7932
kyo	-7933
▁UN	-7934
▁Equ	-7935
asive	-7936
▁nuts	-7937
▁Encourage	-7938
▁commitment	-7939
▁owner	-7940
▁pursu	-7941
▁proposed	-7942
▁references	-7943
Act	-7944
▁Ult	-7945
inent	-7946
▁crops	-7947
▁plane	-7948
▁teeth	-7949
ionship	-7950
▁Column	-7951
▁producing	-7952
▁Sn	-7953
column	-7954
▁cater	-7955
▁clients	-7956
▁parties	-7957
▁prompts	-7958
▁distingu	-7959
▁extracts	-7960
▁reversed	-7961
▁swimming	-7962
▁developer	-7963
▁resilience	-7964
▁mathematics	-7965
▁occurrences	-7966
▁Fol	-7967
REATE	-7968
▁none	-7969
ushing	-7970
▁reson	-7971
▁staff	-7972
▁Altern	-7973
▁depart	-7974
ditional	-7975
▁Physical	-7976
▁leverage	-7977
▁Washington	-7978
▁participate	-7979
*}	-7980
AX	-7981
affe	-7982
avid	-7983
▁120	-7984
▁150	-7985
arser	-7986
osure	-7987
quire	-7988
ucose	-7989
lation	-7990
▁marks	-7991
▁brands	-7992
▁responsibility	-7993
tons	-7994
espan	-7995
etary	-7996
▁Node	-7997
▁None	-7998
anuary	-7999
ercial	-8000
urable	-8001
▁bridge	-8002
▁rhyming	-8003
stitution	-8004
employment	-8005
▁Neural	-8006
▁contents	-8007
▁simultane	-8008
▁commercial	-8009
▁electronics	-8010
▁Expl	-8011
▁alive	-8012
▁Impact	-8013
▁adjustments	-8014
emon	-8015
▁300	-8016
▁Dog	-8017
▁Conf	-8018
▁drug	-8019
animal	-8020
▁cluster	-8021
▁applying	-8022
▁pictures	-8023
▁improvements	-8024
Dis	-8025
▁31	-8026
▁64	-8027
enty	-8028
▁male	-8029
▁jumps	-8030
▁concentration	-8031
emory	-8032
▁Item	-8033
▁Gather	-8034
▁Retrie	-8035
▁athlet	-8036
▁emphasize	-8037
▁subtraction	-8038
29	-8039
ij	-8040
ponse	-8041
▁hosp	-8042
Builder	-8043
urchase	-8044
▁indices	-8045
▁proteins	-8046
volutional	-8047
▁breathing	-8048
▁struggling	-8049
▁conjunction	-8050
▁International	-8051
Can	-8052
Prime	-8053
▁fats	-8054
▁pink	-8055
▁inequ	-8056
▁merge	-8057
▁women	-8058
▁Multip	-8059
▁magnetic	-8060
qli	-8061
▁"$	-8062
roph	-8063
▁");	-8064
boxed	-8065
▁Place	-8066
▁diagon	-8067
▁convenient	-8068
▁experiencing	-8069
▁revolutionized	-8070
▁25,	-8071
▁wit	-8072
gebra	-8073
happy	-8074
iliar	-8075
▁prop	-8076
▁TABLE	-8077
▁Search	-8078
▁Virtual	-8079
▁opinion	-8080
▁reusable	-8081
▁uncertain	-8082
▁collecting	-8083
ini	-8084
▁400	-8085
▁lun	-8086
elled	-8087
usive	-8088
▁INTO	-8089
income	-8090
▁conducted	-8091
▁subtracting	-8092
#{	-8093
EM	-8094
▁Num	-8095
▁Vol	-8096
printf	-8097
▁measured	-8098
▁toppings	-8099
▁tablespoon	-8100
▁vocabulary	-8101
▁characteristic	-8102
wood	-8103
▁thin	-8104
▁luxury	-8105
▁oranges	-8106
▁altitude	-8107
▁wildlife	-8108
ifts	-8109
floor	-8110
▁Tower	-8111
levision	-8112
▁drawing	-8113
▁empathy	-8114
▁vegetarian	-8115
▁10;	-8116
▁ign	-8117
▁auto	-8118
Message	-8119
▁servers	-8120
etworking	-8121
adjectives	-8122
▁purchased	-8123
▁denominator	-8124
▁AM	-8125
▁LI	-8126
▁COU	-8127
▁blend	-8128
▁decade	-8129
▁translated	-8130
Man	-8131
▁Ob	-8132
iring	-8133
▁Cook	-8134
health	-8135
impact	-8136
▁occas	-8137
▁Climate	-8138
▁tourist	-8139
▁calendar	-8140
roy	-8141
▁[1	-8142
enses	-8143
▁photo	-8144
▁taxes	-8145
tabular	-8146
▁horror	-8147
▁turning	-8148
UE	-8149
cr	-8150
pack	-8151
▁COUNT	-8152
▁Grand	-8153
▁timer	-8154
▁amazing	-8155
ventional	-8156
▁iterates	-8157
▁tropical	-8158
▁agent	-8159
▁award	-8160
▁Change	-8161
▁corner	-8162
▁medicine	-8163
▁streaming	-8164
{3	-8165
lon	-8166
▁Sam	-8167
oking	-8168
stial	-8169
▁Pand	-8170
▁astronaut	-8171
▁extensive	-8172
▁assistants	-8173
▁Intelligence	-8174
Java	-8175
Title	-8176
▁fant	-8177
▁hunt	-8178
▁exists	-8179
▁homoph	-8180
▁oceans	-8181
▁sliced	-8182
▁subset	-8183
▁brought	-8184
▁worldwide	-8185
▁industrial	-8186
▁intelligent	-8187
▁computational	-8188
▁20.	-8189
▁Jul	-8190
erator	-8191
subject	-8192
▁covers	-8193
Sentiment	-8194
▁outlines	-8195
Description	-8196
ingredients	-8197
(0	-8198
pass	-8199
ometry	-8200
taking	-8201
▁dense	-8202
▁permut	-8203
▁conflicts	-8204
▁recipient	-8205
▁retention	-8206
▁strategic	-8207
1/	-8208
apse	-8209
story	-8210
ocated	-8211
ariable	-8212
▁Function	-8213
▁quantities	-8214
▁institutions	-8215
▁Sl	-8216
▁Joh	-8217
▁beef	-8218
▁Integr	-8219
▁nuclear	-8220
▁serious	-8221
▁comparative	-8222
ca	-8223
▁\[	-8224
irds	-8225
▁DES	-8226
large	-8227
acking	-8228
▁Clean	-8229
▁Order	-8230
ynomial	-8231
▁Support	-8232
▁antonym	-8233
supervised	-8234
VM	-8235
Eng	-8236
▁Of	-8237
▁lex	-8238
Client	-8239
▁legend	-8240
▁elephant	-8241
▁singular	-8242
▁hexadecimal	-8243
+1)	-8244
Area	-8245
plex	-8246
▁ago	-8247
▁intu	-8248
▁ship	-8249
▁alter	-8250
▁nucle	-8251
▁snacks	-8252
▁appoint	-8253
▁accessed	-8254
▁persever	-8255
▁beneficial	-8256
▁'.	-8257
ango	-8258
long	-8259
ccoli	-8260
float	-8261
▁Food	-8262
angles	-8263
itative	-8264
▁owners	-8265
▁ranging	-8266
▁relatively	-8267
▁relaxation	-8268
▁dynamically	-8269
VG	-8270
pair	-8271
▁Try	-8272
anted	-8273
apter	-8274
▁decline	-8275
▁confident	-8276
break	-8277
field	-8278
consum	-8279
second	-8280
▁observ	-8281
▁Practice	-8282
▁regulate	-8283
▁automated	-8284
▁preprocessed	-8285
▁$4	-8286
Book	-8287
▁suc	-8288
abric	-8289
▁push	-8290
▁suspect	-8291
▁citizens	-8292
▁measuring	-8293
bur	-8294
▁})	-8295
▁twe	-8296
party	-8297
uling	-8298
erving	-8299
▁frustr	-8300
▁coconut	-8301
sentences	-8302
▁~	-8303
(3)	-8304
▁"2	-8305
then	-8306
▁Newton	-8307
▁saving	-8308
▁keyboard	-8309
Dec	-8310
ida	-8311
▁ow	-8312
▁Sea	-8313
▁pap	-8314
erial	-8315
Python	-8316
▁satell	-8317
▁severe	-8318
▁sonnet	-8319
paration	-8320
▁samples	-8321
iteration	-8322
▁bacteria	-8323
▁explicit	-8324
▁÷	-8325
▁pig	-8326
csharp	-8327
ewable	-8328
▁Steps	-8329
▁Rel	-8330
izard	-8331
ministr	-8332
▁carbohydrates	-8333
And	-8334
Cre	-8335
eta	-8336
yon	-8337
▁soda	-8338
▁plate	-8339
▁contem	-8340
▁pipeline	-8341
▁ArrayList	-8342
▁simultaneously	-8343
XX	-8344
▁16.	-8345
▁outl	-8346
estion	-8347
▁pitch	-8348
▁biggest	-8349
▁metabol	-8350
▁installed	-8351
API	-8352
lem	-8353
inch	-8354
▁axis	-8355
-----|	-8356
▁hotel	-8357
▁mouth	-8358
Country	-8359
▁crisis	-8360
▁fictional	-8361
▁Understanding	-8362
▁representative	-8363
9)	-8364
"].	-8365
rier	-8366
▁Whe	-8367
-----	-8368
▁seed	-8369
formula	-8370
▁hundred	-8371
▁Translate	-8372
▁animation	-8373
▁involving	-8374
▁standards	-8375
▁linguistic	-8376
▁categorized	-8377
>1	-8378
LO	-8379
▁Beg	-8380
▁Syn	-8381
onomy	-8382
▁Plot	-8383
▁Rock	-8384
Stream	-8385
abetes	-8386
capital	-8387
▁Industr	-8388
▁noticed	-8389
▁exposure	-8390
▁meetings	-8391
▁University	-8392
▁incentives	-8393
Ne	-8394
▁Bec	-8395
▁Ber	-8396
▁Doe	-8397
▁pul	-8398
▁seek	-8399
▁Smart	-8400
positive	-8401
▁domestic	-8402
▁competitors	-8403
▁pH	-8404
irth	-8405
real	-8406
ythag	-8407
▁mask	-8408
answer	-8409
▁father	-8410
▁gained	-8411
Elements	-8412
▁Software	-8413
▁adjusting	-8414
▁introduce	-8415
▁parentheses	-8416
▁ON	-8417
▁23,	-8418
▁god	-8419
▁herb	-8420
▁Mount	-8421
▁couple	-8422
▁impossible	-8423
2;	-8424
was	-8425
▁tun	-8426
icnic	-8427
▁herbs	-8428
▁schools	-8429
.\	-8430
▁(2,	-8431
itory	-8432
▁Block	-8433
▁chlor	-8434
▁eight	-8435
▁upcoming	-8436
UES	-8437
scala	-8438
ateful	-8439
▁Prime	-8440
▁uncon	-8441
▁England	-8442
▁offered	-8443
▁skilled	-8444
▁conserve	-8445
▁darkness	-8446
▁standing	-8447
▁syllable	-8448
▁weighted	-8449
▁completion	-8450
▁differentiate	-8451
▁ec	-8452
▁"""	-8453
depth	-8454
▁DESC	-8455
ponents	-8456
rambled	-8457
▁rivers	-8458
▁Discuss	-8459
▁Security	-8460
▁circular	-8461
▁disadvantages	-8462
▁preprocessing	-8463
'))	-8464
aud	-8465
sim	-8466
icon	-8467
sequ	-8468
show	-8469
▁loan	-8470
▁neck	-8471
luding	-8472
▁Plant	-8473
▁posit	-8474
▁Central	-8475
▁Predict	-8476
▁William	-8477
▁heading	-8478
▁surveys	-8479
=\	-8480
▁-2	-8481
redu	-8482
▁cmd	-8483
▁fle	-8484
▁raw	-8485
▁coat	-8486
▁vacc	-8487
ultural	-8488
▁appeal	-8489
▁yogurt	-8490
▁tagging	-8491
▁everyday	-8492
▁receives	-8493
(4	-8494
)]	-8495
ued	-8496
aled	-8497
brid	-8498
▁spl	-8499
icago	-8500
▁curren	-8501
ba	-8502
▁'%	-8503
▁Pa	-8504
bird	-8505
▁50%	-8506
▁pull	-8507
apping	-8508
icated	-8509
▁rapidly	-8510
▁rewrite	-8511
▁surprise	-8512
▁agreement	-8513
▁processor	-8514
▁derivative	-8515
▁Substituting	-8516
orry	-8517
▁Log	-8518
▁sac	-8519
▁cohe	-8520
▁dash	-8521
▁grew	-8522
▁routes	-8523
▁Windows	-8524
▁packaging	-8525
▁measurement	-8526
arg	-8527
▁10^	-8528
▁USA	-8529
force	-8530
match	-8531
▁tang	-8532
estamp	-8533
-------	-8534
▁onions	-8535
▁quotes	-8536
▁stable	-8537
▁thread	-8538
▁algebra	-8539
▁secrets	-8540
▁geometric	-8541
▁regardless	-8542
ikip	-8543
▁$10	-8544
▁Ever	-8545
▁White	-8546
▁deals	-8547
▁tooth	-8548
synonyms	-8549
▁bananas	-8550
▁mistakes	-8551
▁determines	-8552
▁collaborate	-8553
▁researching	-8554
▁spreadsheet	-8555
▁×	-8556
ott	-8557
sym	-8558
▁KE	-8559
inoa	-8560
▁18,	-8561
space	-8562
▁shade	-8563
species	-8564
▁mysqli	-8565
▁ranges	-8566
▁quarter	-8567
▁protocol	-8568
▁compounds	-8569
DA	-8570
SS	-8571
obe	-8572
rays	-8573
▁Mag	-8574
▁rab	-8575
gender	-8576
▁overl	-8577
▁socio	-8578
employee	-8579
▁seeking	-8580
▁composed	-8581
▁influenc	-8582
▁inspired	-8583
"};	-8584
pper	-8585
▁Ste	-8586
stone	-8587
▁fewer	-8588
▁flood	-8589
▁sphere	-8590
ikipedia	-8591
▁Company	-8592
▁Feature	-8593
▁concern	-8594
▁discussing	-8595
Go	-8596
▁1);	-8597
agues	-8598
atisf	-8599
chool	-8600
havior	-8601
▁panels	-8602
▁doctors	-8603
▁evolved	-8604
▁parsing	-8605
▁succeed	-8606
▁Internet	-8607
▁particle	-8608
▁polynomial	-8609
How	-8610
tree	-8611
▁20%	-8612
▁adm	-8613
piece	-8614
▁west	-8615
▁Serve	-8616
▁Pythag	-8617
▁retain	-8618
▁glucose	-8619
▁employed	-8620
▁iteration	-8621
olk	-8622
▁Tur	-8623
▁spring	-8624
▁Kingdom	-8625
▁minimal	-8626
structured	-8627
▁introduced	-8628
EF	-8629
Cal	-8630
2022	-8631
cled	-8632
▁0.3	-8633
▁17,	-8634
▁IoT	-8635
osaur	-8636
▁lake	-8637
places	-8638
▁incon	-8639
execute	-8640
activity	-8641
▁nuanced	-8642
▁signals	-8643
aws	-8644
▁Mov	-8645
Order	-8646
▁feas	-8647
▁says	-8648
▁Spark	-8649
▁infin	-8650
▁Method	-8651
▁adults	-8652
▁reaches	-8653
avelength	-8654
▁transmit	-8655
▁celestial	-8656
▁geographical	-8657
79	-8658
lst	-8659
rote	-8660
▁(10	-8661
▁Ari	-8662
oston	-8663
▁Call	-8664
▁LIKE	-8665
Person	-8666
energy	-8667
element	-8668
▁museum	-8669
▁purple	-8670
▁courage	-8671
▁despite	-8672
▁ordered	-8673
▁rounded	-8674
+2	-8675
-15	-8676
Aut	-8677
▁Dev	-8678
regular	-8679
▁warmth	-8680
▁waiting	-8681
▁Category	-8682
▁extraction	-8683
azz	-8684
▁5;	-8685
▁8:	-8686
ials	-8687
actic	-8688
click	-8689
▁spam	-8690
▁boxes	-8691
▁oppon	-8692
▁trigger	-8693
▁worksheet	-8694
anqu	-8695
rient	-8696
▁anom	-8697
------	-8698
▁Night	-8699
▁quite	-8700
▁Android	-8701
▁simpler	-8702
▁promotes	-8703
▁butterfly	-8704
▁Gen	-8705
▁ski	-8706
Query	-8707
▁2019	-8708
▁stre	-8709
▁swap	-8710
▁tire	-8711
▁holds	-8712
▁motor	-8713
▁sequences	-8714
▁thousands	-8715
omb	-8716
vol	-8717
enuse	-8718
useum	-8719
▁Hash	-8720
header	-8721
▁bulbs	-8722
▁orbit	-8723
▁charging	-8724
▁expresses	-8725
110	-8726
Att	-8727
▁196	-8728
▁Ele	-8729
▁Nut	-8730
▁die	-8731
▁jud	-8732
othes	-8733
▁2000	-8734
▁bell	-8735
▁teen	-8736
▁spark	-8737
telling	-8738
▁immune	-8739
▁grateful	-8740
▁latitude	-8741
▁fraudulent	-8742
*)	-8743
▁(!	-8744
▁cas	-8745
build	-8746
▁crew	-8747
▁roll	-8748
incess	-8749
▁Effect	-8750
▁Reduce	-8751
▁investig	-8752
▁diagnosis	-8753
▁disasters	-8754
▁treatments	-8755
gry	-8756
iov	-8757
ropy	-8758
▁God	-8759
▁Ref	-8760
istry	-8761
tainer	-8762
▁alien	-8763
▁loves	-8764
negative	-8765
specific	-8766
▁tension	-8767
▁typical	-8768
▁relevance	-8769
▁conducting	-8770
▁television	-8771
)/	-8772
ita	-8773
run	-8774
zen	-8775
▁011	-8776
▁enz	-8777
▁lat	-8778
ticip	-8779
ascular	-8780
umerate	-8781
▁August	-8782
▁earlier	-8783
▁diameter	-8784
▁scalable	-8785
▁centimeters	-8786
▁Boo	-8787
▁vent	-8788
Weight	-8789
▁meant	-8790
fitting	-8791
▁Filter	-8792
▁limits	-8793
▁removed	-8794
▁squared	-8795
▁opinions	-8796
▁quotient	-8797
▁displaying	-8798
▁inequality	-8799
▁supporting	-8800
▁transmission	-8801
(:	-8802
)")	-8803
IDI	-8804
emy	-8805
sue	-8806
Form	-8807
Step	-8808
iber	-8809
▁"";	-8810
▁haz	-8811
allow	-8812
▁Three	-8813
▁abstract	-8814
▁finished	-8815
▁deadlines	-8816
▁migration	-8817
▁occurrence	-8818
Char	-8819
anes	-8820
▁harsh	-8821
▁peppers	-8822
▁profound	-8823
▁promotions	-8824
▁Ben	-8825
▁Low	-8826
▁throw	-8827
▁Golden	-8828
▁manufacturer	-8829
▁Communication	-8830
appe	-8831
ella	-8832
▁Dem	-8833
esthe	-8834
▁freq	-8835
▁gave	-8836
target	-8837
▁notice	-8838
▁unlock	-8839
▁staying	-8840
adjective	-8841
▁terminal	-8842
▁validate	-8843
▁congestion	-8844
olph	-8845
▁democ	-8846
pmatrix	-8847
▁multif	-8848
Sm	-8849
hum	-8850
▁_,	-8851
ibly	-8852
▁(0.	-8853
▁Pour	-8854
▁closely	-8855
▁Business	-8856
▁procedures	-8857
▁encountered	-8858
Py	-8859
ocur	-8860
▁Wal	-8861
▁boat	-8862
upiter	-8863
▁Tokyo	-8864
▁doctor	-8865
▁supported	-8866
▁unsupervised	-8867
mid	-8868
ros	-8869
quis	-8870
▁Mor	-8871
ALUES	-8872
since	-8873
▁kept	-8874
▁Calcul	-8875
▁finish	-8876
▁interior	-8877
▁originated	-8878
▁replacement	-8879
vin	-8880
▁10)	-8881
urrent	-8882
▁brave	-8883
▁equil	-8884
jective	-8885
▁Comput	-8886
▁interval	-8887
▁DataFrame	-8888
appendChild	-8889
▁hyperparameters	-8890
'].	-8891
has	-8892
Comm	-8893
info	-8894
▁$0.	-8895
arant	-8896
▁Life	-8897
Format	-8898
ercent	-8899
▁basis	-8900
▁Apache	-8901
▁Secondly	-8902
▁impressive	-8903
▁48	-8904
▁ads	-8905
▁cer	-8906
status	-8907
▁slowly	-8908
▁consult	-8909
▁Categorize	-8910
'];	-8911
▁Atl	-8912
cloud	-8913
inkle	-8914
▁busy	-8915
▁fert	-8916
▁mush	-8917
iences	-8918
▁flows	-8919
▁thank	-8920
▁pursue	-8921
Language	-8922
▁Combine	-8923
▁markets	-8924
▁longitude	-8925
▁requested	-8926
28	-8927
ieve	-8928
itudes	-8929
▁James	-8930
▁strict	-8931
▁tested	-8932
▁analyst	-8933
▁operate	-8934
OST	-8935
OUR	-8936
▁ox	-8937
alls	-8938
iano	-8939
iche	-8940
ille	-8941
▁reb	-8942
instein	-8943
▁culinary	-8944
AD	-8945
▁ML	-8946
hero	-8947
▁KEY	-8948
▁Run	-8949
olves	-8950
imedia	-8951
▁LIMIT	-8952
▁delay	-8953
▁panel	-8954
▁VALUES	-8955
▁raised	-8956
▁Because	-8957
▁experts	-8958
▁insects	-8959
▁Development	-8960
Part	-8961
eter	-8962
ulpt	-8963
▁cop	-8964
haust	-8965
System	-8966
▁champ	-8967
products	-8968
▁Sentence	-8969
▁insurance	-8970
▁Pythagorean	-8971
▁personalize	-8972
^{	-8973
/3)	-8974
Jane	-8975
▁cha	-8976
▁era	-8977
matlab	-8978
▁older	-8979
▁earned	-8980
▁nothing	-8981
iovascular	-8982
▁predators	-8983
▁substance	-8984
▁consistency	-8985
▁Constitution	-8986
▁Introduction	-8987
._	-8988
nis	-8989
▁RO	-8990
engu	-8991
▁Image	-8992
▁Third	-8993
▁polar	-8994
▁trait	-8995
Location	-8996
▁diabetes	-8997
▁encoding	-8998
▁perspectives	-8999
({	-9000
-20	-9001
dev	-9002
}")	-9003
▁Har	-9004
ulous	-9005
▁edit	-9006
defined	-9007
▁wearing	-9008
▁rainfall	-9009
▁perception	-9010
▁wavelength	-9011
esla	-9012
▁2.5	-9013
▁vine	-9014
corpus	-9015
▁radio	-9016
▁captiv	-9017
▁thrive	-9018
▁assigns	-9019
▁comment	-9020
▁Decision	-9021
▁Conclusion	-9022
▁Management	-9023
▁recursively	-9024
36	-9025
nlp	-9026
▁arms	-9027
ressed	-9028
▁dough	-9029
▁manual	-9030
▁minimizing	-9031
erce	-9032
using	-9033
▁Edit	-9034
▁Mich	-9035
▁CREATE	-9036
▁evening	-9037
▁muscles	-9038
localhost	-9039
▁endpoint	-9040
▁teachers	-9041
▁versatile	-9042
▁containers	-9043
▁tablespoons	-9044
▁contributing	-9045
▁circumstances	-9046
▁environmentally	-9047
PA	-9048
oj	-9049
Max	-9050
iform	-9051
assion	-9052
▁paths	-9053
▁anticip	-9054
▁consume	-9055
▁dimension	-9056
▁extension	-9057
▁multifaceted	-9058
CE	-9059
mers	-9060
▁nit	-9061
oting	-9062
▁Back	-9063
▁cert	-9064
arding	-9065
▁grown	-9066
▁almond	-9067
▁sculpt	-9068
▁talent	-9069
equation	-9070
▁hunting	-9071
▁emphasis	-9072
▁centuries	-9073
▁retrieved	-9074
▁Brainstorm	-9075
76	-9076
Su	-9077
aver	-9078
ideo	-9079
oxid	-9080
Event	-9081
▁lock	-9082
▁nums	-9083
▁parks	-9084
▁brings	-9085
question	-9086
▁Average	-9087
▁holiday	-9088
▁enjoyable	-9089
▁inquiries	-9090
UI	-9091
DATE	-9092
▁Gre	-9093
cohol	-9094
▁bottle	-9095
▁tailor	-9096
▁operators	-9097
▁indicators	-9098
OK	-9099
▁da	-9100
▁Que	-9101
▁SEO	-9102
▁Stat	-9103
undant	-9104
▁keeps	-9105
▁verse	-9106
▁happened	-9107
▁dedicated	-9108
▁persuasive	-9109
▁independence	-9110
eling	-9111
ictor	-9112
▁Token	-9113
▁Action	-9114
▁Adding	-9115
▁Project	-9116
▁greatly	-9117
Exception	-9118
▁headings	-9119
ingredient	-9120
▁disabilities	-9121
96	-9122
apes	-9123
post	-9124
▁Any	-9125
▁Decl	-9126
▁Subt	-9127
▁Space	-9128
▁tough	-9129
▁harder	-9130
▁connects	-9131
VER	-9132
fil	-9133
aped	-9134
else	-9135
▁Dig	-9136
▁Map	-9137
▁Cent	-9138
Numbers	-9139
▁avocado	-9140
▁Beautiful	-9141
▁hypotenuse	-9142
▁traditions	-9143
war	-9144
opes	-9145
▁fed	-9146
▁lic	-9147
▁sql	-9148
▁epis	-9149
▁infe	-9150
▁rose	-9151
Printf	-9152
▁sched	-9153
purpose	-9154
▁Invest	-9155
▁mining	-9156
▁polygon	-9157
▁semantic	-9158
▁experiments	-9159
oder	-9160
rich	-9161
▁curl	-9162
▁fees	-9163
▁rocks	-9164
correct	-9165
▁hosting	-9166
▁reprodu	-9167
▁analytical	-9168
▁civilization	-9169
-1]	-9170
rete	-9171
▁Top	-9172
heast	-9173
▁Prot	-9174
▁rent	-9175
radius	-9176
unique	-9177
▁Begin	-9178
▁Level	-9179
▁queue	-9180
▁smile	-9181
▁tagged	-9182
▁bottles	-9183
transform	-9184
▁invention	-9185
▁requiring	-9186
▁participle	-9187
▁interpretation	-9188
/5	-9189
`)	-9190
bo	-9191
"];	-9192
▁Cam	-9193
▁Link	-9194
▁prem	-9195
▁Apply	-9196
▁steam	-9197
▁Museum	-9198
▁Scient	-9199
▁clauses	-9200
▁drivers	-9201
▁provider	-9202
)(	-9203
95	-9204
ably	-9205
nson	-9206
uffy	-9207
▁oct	-9208
idates	-9209
▁plain	-9210
▁shares	-9211
▁enjoyed	-9212
▁urgency	-9213
▁Challenge	-9214
▁employment	-9215
▁networking	-9216
▁programmed	-9217
▁surrounded	-9218
rus	-9219
▁Ma	-9220
▁Ty	-9221
drop	-9222
▁Pol	-9223
ilant	-9224
▁lose	-9225
angers	-9226
▁curve	-9227
▁Chicago	-9228
▁Material	-9229
Connection	-9230
▁struggles	-9231
▁addressing	-9232
▁organizing	-9233
#:	-9234
Mon	-9235
▁Je	-9236
eros	-9237
freq	-9238
▁Dat	-9239
▁Pos	-9240
Range	-9241
▁bills	-9242
▁Forest	-9243
▁visiting	-9244
34	-9245
ilk	-9246
▁Pay	-9247
▁Arab	-9248
▁Hand	-9249
▁glow	-9250
▁lion	-9251
lambda	-9252
uality	-9253
▁Event	-9254
▁Point	-9255
▁films	-9256
through	-9257
▁Assign	-9258
▁absorb	-9259
▁passes	-9260
▁feather	-9261
▁hobbies	-9262
▁sadness	-9263
▁allocate	-9264
▁consonants	-9265
▁spacecraft	-9266
gre	-9267
▁zone	-9268
▁fabric	-9269
▁picnic	-9270
▁sensor	-9271
▁reputation	-9272
▁visibility	-9273
▁revolutionize	-9274
sur	-9275
lest	-9276
Level	-9277
▁feat	-9278
edback	-9279
▁grace	-9280
▁yield	-9281
essions	-9282
▁plenty	-9283
▁calling	-9284
▁heavily	-9285
orch	-9286
stor	-9287
▁PDF	-9288
block	-9289
▁castle	-9290
▁clothes	-9291
▁forever	-9292
▁avoiding	-9293
▁directed	-9294
▁focusing	-9295
▁preventing	-9296
▁vulnerable	-9297
▁publication	-9298
▁observations	-9299
▁deforestation	-9300
sor	-9301
▁1]	-9302
▁shr	-9303
iable	-9304
layer	-9305
▁coin	-9306
▁infect	-9307
▁Information	-9308
▁possibilities	-9309
1"	-9310
78	-9311
▁arm	-9312
▁deck	-9313
ferent	-9314
▁diced	-9315
▁exclude	-9316
▁insight	-9317
▁instant	-9318
▁signature	-9319
▁foundation	-9320
▁initiatives	-9321
createElement	-9322
De	-9323
^4	-9324
)];	-9325
▁0.2	-9326
▁aqu	-9327
Output	-9328
reheat	-9329
salary	-9330
▁inher	-9331
▁profic	-9332
▁advance	-9333
▁destroy	-9334
▁shelter	-9335
▁adventur	-9336
▁expansion	-9337
▁directions	-9338
▁`\	-9339
cknow	-9340
▁chef	-9341
fruits	-9342
onomous	-9343
▁marked	-9344
unctions	-9345
▁Nations	-9346
▁falling	-9347
▁herself	-9348
▁evaluating	-9349
▁dou	-9350
▁pil	-9351
analy	-9352
▁debt	-9353
▁pace	-9354
▁Enjoy	-9355
▁trail	-9356
troller	-9357
▁speeds	-9358
fficient	-9359
▁authors	-9360
▁carrots	-9361
▁browsing	-9362
Dr	-9363
zes	-9364
▁(0,	-9365
▁Oct	-9366
▁las	-9367
▁nth	-9368
▁dedu	-9369
▁diam	-9370
player	-9371
▁Vector	-9372
▁buttons	-9373
▁examine	-9374
▁melting	-9375
▁sending	-9376
Classifier	-9377
▁happening	-9378
eek	-9379
From	-9380
pool	-9381
west	-9382
▁cubic	-9383
▁proof	-9384
▁steep	-9385
▁Boston	-9386
▁poetry	-9387
▁tennis	-9388
▁resolve	-9389
▁Building	-9390
▁Einstein	-9391
▁emerging	-9392
▁magnitude	-9393
▁animations	-9394
ael	-9395
tex	-9396
▁Job	-9397
▁Long	-9398
▁Salt	-9399
▁texts	-9400
▁wrote	-9401
egative	-9402
▁balloon	-9403
▁spinach	-9404
▁subjects	-9405
▁protecting	-9406
pred	-9407
▁iOS	-9408
▁tiny	-9409
itions	-9410
▁loads	-9411
animals	-9412
average	-9413
inerary	-9414
▁Yellow	-9415
countries	-9416
▁gratitude	-9417
▁regarding	-9418
▁dedication	-9419
ING	-9420
lla	-9421
Next	-9422
▁Util	-9423
▁bars	-9424
▁leaf	-9425
google	-9426
▁brush	-9427
▁Empire	-9428
▁Cut	-9429
▁moved	-9430
▁whisk	-9431
▁plural	-9432
▁refrig	-9433
▁neurons	-9434
▁calculator	-9435
▁previously	-9436
▁transparent	-9437
idy	-9438
Blob	-9439
High	-9440
User	-9441
cium	-9442
▁Ham	-9443
▁Pop	-9444
afood	-9445
irect	-9446
means	-9447
pload	-9448
rical	-9449
▁Tesla	-9450
▁numpy	-9451
▁Public	-9452
▁digest	-9453
▁January	-9454
▁founded	-9455
connected	-9456
▁molecule	-9457
▁PR	-9458
▁Po	-9459
▁Cour	-9460
▁fost	-9461
▁lies	-9462
▁sarc	-9463
▁Chart	-9464
▁likes	-9465
▁dining	-9466
▁territ	-9467
▁increment	-9468
▁satellite	-9469
▁consistently	-9470
mas	-9471
▁wed	-9472
▁cozy	-9473
▁earn	-9474
▁vict	-9475
▁Naive	-9476
▁export	-9477
▁logistic	-9478
▁engineers	-9479
▁preparation	-9480
rh	-9481
}:	-9482
[2]	-9483
tim	-9484
endl	-9485
prov	-9486
▁(201	-9487
▁shot	-9488
linear	-9489
▁stocks	-9490
▁tactics	-9491
▁molecular	-9492
▁Population	-9493
▁thoroughly	-9494
▁compatibility	-9495
Def	-9496
uge	-9497
▁21,	-9498
---|---|	-9499
▁comprom	-9500
▁streets	-9501
▁smoothie	-9502
▁dashboard	-9503
▁president	-9504
▁backgrounds	-9505
▁appreciation	-9506
}$.	-9507
never	-9508
rogen	-9509
▁lift	-9510
Amount	-9511
ifying	-9512
▁banks	-9513
aration	-9514
nextInt	-9515
▁closing	-9516
▁Benefits	-9517
▁decentral	-9518
RUE	-9519
aid	-9520
▁-0.	-9521
ician	-9522
ipped	-9523
rones	-9524
▁scope	-9525
ruption	-9526
▁Present	-9527
▁Retrieve	-9528
▁antioxid	-9529
▁stumbled	-9530
▁Analytics	-9531
▁unemployment	-9532
-12	-9533
ham	-9534
lat	-9535
ping	-9536
▁cyl	-9537
ashed	-9538
false	-9539
▁syns	-9540
▁Reduc	-9541
▁Taking	-9542
▁arrangement	-9543
Is	-9544
▁3-	-9545
tuce	-9546
▁194	-9547
▁dot	-9548
▁wis	-9549
▁Real	-9550
quipped	-9551
▁broader	-9552
ercentage	-9553
▁reaching	-9554
▁teamwork	-9555
▁productive	-9556
lay	-9557
▁Tex	-9558
antum	-9559
▁Iter	-9560
▁conv	-9561
▁nick	-9562
▁penc	-9563
▁Stand	-9564
entials	-9565
▁backup	-9566
▁intuitive	-9567
▁investigate	-9568
▁alternatives	-9569
▁collaborative	-9570
"{	-9571
conf	-9572
▁alb	-9573
▁ham	-9574
folio	-9575
▁east	-9576
▁gest	-9577
▁feels	-9578
▁pyram	-9579
▁Update	-9580
▁Collabor	-9581
▁recycled	-9582
▁elevation	-9583
▁replacing	-9584
enu	-9585
▁Haw	-9586
----|	-9587
Sales	-9588
sized	-9589
▁Post	-9590
▁evil	-9591
▁pour	-9592
ponent	-9593
▁react	-9594
▁grains	-9595
gression	-9596
▁decoded	-9597
▁rolling	-9598
▁therapy	-9599
▁consumed	-9600
▁lifespan	-9601
▁rotation	-9602
Fr	-9603
keys	-9604
▁June	-9605
abling	-9606
categor	-9607
▁farmers	-9608
▁Location	-9609
▁tomorrow	-9610
▁investors	-9611
▁storytelling	-9612
:")	-9613
▁(3,	-9614
▁Ask	-9615
press	-9616
▁cave	-9617
▁Autom	-9618
▁exhaust	-9619
▁leaders	-9620
▁Employee	-9621
▁exclusive	-9622
▁irregular	-9623
UR	-9624
mys	-9625
Case	-9626
unct	-9627
▁RGB	-9628
▁July	-9629
▁Phot	-9630
▁Tree	-9631
atching	-9632
percent	-9633
▁beaches	-9634
▁Ultimately	-9635
▁imagination	-9636
▁neighborhood	-9637
▁√	-9638
Ins	-9639
days	-9640
▁18.	-9641
▁flo	-9642
▁scr	-9643
▁gene	-9644
▁scent	-9645
▁targets	-9646
▁whereas	-9647
fin	-9648
uel	-9649
▁Dra	-9650
▁brew	-9651
▁leap	-9652
orange	-9653
piring	-9654
▁Light	-9655
▁Solar	-9656
▁chips	-9657
▁stone	-9658
▁wheel	-9659
▁combat	-9660
▁shaped	-9661
esterday	-9662
▁Content	-9663
▁Johnson	-9664
▁artwork	-9665
▁earthqu	-9666
▁seasons	-9667
▁kindness	-9668
▁speakers	-9669
17	-9670
bi	-9671
gi	-9672
▁Cy	-9673
ikit	-9674
▁Oly	-9675
▁cab	-9676
paste	-9677
▁Cong	-9678
▁bubble	-9679
▁Service	-9680
▁weekend	-9681
▁deadline	-9682
▁thermost	-9683
▁geographic	-9684
▁alliteration	-9685
=$	-9686
han	-9687
000.	-9688
▁Nob	-9689
▁knight	-9690
▁cookies	-9691
▁funding	-9692
▁holding	-9693
▁sitting	-9694
▁subsequ	-9695
▁moisture	-9696
▁sleeping	-9697
▁palindrom	-9698
▁repeating	-9699
▁distractions	-9700
▁cardiovascular	-9701
ota	-9702
anut	-9703
▁wish	-9704
▁Break	-9705
▁hobby	-9706
▁vital	-9707
▁allerg	-9708
▁potato	-9709
▁relate	-9710
▁Subject	-9711
▁happens	-9712
▁nuances	-9713
▁shaping	-9714
▁initializes	-9715
==	-9716
roll	-9717
▁hes	-9718
▁http	-9719
▁Today	-9720
ternoon	-9721
▁obstacle	-9722
▁robotics	-9723
▁drawbacks	-9724
▁continuously	-9725
▁reinforcement	-9726
VB	-9727
isy	-9728
▁10:	-9729
▁CEO	-9730
asses	-9731
▁Dear	-9732
▁David	-9733
▁Prize	-9734
▁funds	-9735
▁Nature	-9736
▁propose	-9737
▁politics	-9738
WS	-9739
YY	-9740
=0.	-9741
ARY	-9742
vity	-9743
▁198	-9744
▁Aud	-9745
▁mort	-9746
▁seat	-9747
levant	-9748
▁startup	-9749
▁symbolism	-9750
\]	-9751
vals	-9752
Latex	-9753
▁Verb	-9754
▁laun	-9755
▁wins	-9756
▁guest	-9757
▁charged	-9758
▁gathering	-9759
^(	-9760
avg	-9761
rium	-9762
▁Mal	-9763
const	-9764
▁pure	-9765
arithm	-9766
counts	-9767
▁sends	-9768
▁hurric	-9769
▁analyzes	-9770
▁accessing	-9771
▁duplicate	-9772
▁multiples	-9773
▁distinguish	-9774
AP	-9775
TH	-9776
dy	-9777
Load	-9778
diff	-9779
▁50,	-9780
▁Off	-9781
▁Ver	-9782
rence	-9783
▁Prior	-9784
▁bonds	-9785
▁aesthe	-9786
▁almost	-9787
▁coastal	-9788
▁persist	-9789
▁surfaces	-9790
37	-9791
3>	-9792
Fi	-9793
hi	-9794
uk	-9795
flu	-9796
:");	-9797
elta	-9798
keep	-9799
nums	-9800
▁GPS	-9801
found	-9802
ittle	-9803
plane	-9804
▁Home	-9805
▁inval	-9806
riangle	-9807
summary	-9808
▁bought	-9809
▁flying	-9810
▁Preheat	-9811
▁disrupt	-9812
▁recorded	-9813
▁concatenate	-9814
▁34	-9815
▁SS	-9816
made	-9817
racy	-9818
▁19,	-9819
▁Row	-9820
heart	-9821
▁aids	-9822
banana	-9823
▁housing	-9824
▁athletes	-9825
▁committed	-9826
phr	-9827
▁\"	-9828
▁195	-9829
▁Bang	-9830
ifting	-9831
ooting	-9832
▁heads	-9833
▁athlete	-9834
▁conclude	-9835
▁itinerary	-9836
▁boundaries	-9837
▁explicitly	-9838
▁readability	-9839
▁connectivity	-9840
▁Environmental	-9841
▁comprehension	-9842
▁vulnerabilities	-9843
\(	-9844
ón	-9845
Num	-9846
▁Non	-9847
chars	-9848
▁arom	-9849
▁bath	-9850
▁golf	-9851
▁tent	-9852
address	-9853
▁League	-9854
▁CoreNLP	-9855
▁Document	-9856
▁TextBlob	-9857
▁organism	-9858
Gl	-9859
roke	-9860
Letter	-9861
▁Frank	-9862
▁assets	-9863
▁carniv	-9864
▁burning	-9865
▁detected	-9866
▁equipped	-9867
[3	-9868
}[	-9869
++,	-9870
Bob	-9871
ship	-9872
tags	-9873
anean	-9874
genre	-9875
▁perp	-9876
▁told	-9877
options	-9878
▁Carbon	-9879
▁farmer	-9880
▁reminders	-9881
▁paragraphs	-9882
▁practicing	-9883
▁achievement	-9884
]+	-9885
Mat	-9886
▁gg	-9887
▁vo	-9888
▁Show	-9889
▁clar	-9890
▁whis	-9891
Source	-9892
ribute	-9893
submit	-9894
▁pound	-9895
▁worry	-9896
natural	-9897
▁Russia	-9898
▁Welcome	-9899
▁adverbs	-9900
▁clarity	-9901
▁relates	-9902
▁datetime	-9903
▁affecting	-9904
lm	-9905
unt	-9906
mult	-9907
umul	-9908
▁wet	-9909
usual	-9910
ateral	-9911
▁Score	-9912
forward	-9913
▁moments	-9914
frequency	-9915
planations	-9916
▁Media	-9917
▁Veget	-9918
▁Follow	-9919
▁grades	-9920
clusions	-9921
▁WordNet	-9922
▁mistake	-9923
▁contemporary	-9924
IP	-9925
{2	-9926
▁π	-9927
css	-9928
isa	-9929
▁3;	-9930
▁55	-9931
shaped	-9932
▁rural	-9933
▁Pandas	-9934
▁phones	-9935
▁slower	-9936
▁typing	-9937
▁crystal	-9938
▁stretch	-9939
CC	-9940
Med	-9941
ston	-9942
atbot	-9943
emble	-9944
▁Latin	-9945
▁silver	-9946
piratory	-9947
▁justice	-9948
▁roasted	-9949
▁diagonal	-9950
▁computation	-9951
▁decentralized	-9952
1_	-9953
KEY	-9954
pres	-9955
rome	-9956
▁soy	-9957
atsby	-9958
▁scan	-9959
▁Multi	-9960
▁Olymp	-9961
▁grows	-9962
▁Jupiter	-9963
▁windows	-9964
▁________	-9965
▁dominant	-9966
▁therefore	-9967
▁inspiration	-9968
▁integrating	-9969
▁convolutional	-9970
97	-9971
}`	-9972
**:	-9973
cut	-9974
▁eth	-9975
atoes	-9976
nings	-9977
amsung	-9978
▁sites	-9979
ordered	-9980
results	-9981
▁tranqu	-9982
▁tweets	-9983
chnology	-9984
▁adoption	-9985
ola	-9986
Json	-9987
card	-9988
init	-9989
stop	-9990
▁Mix	-9991
▁bin	-9992
namon	-9993
▁elev	-9994
phants	-9995
▁negot	-9996
▁strip	-9997
version	-9998
▁scales	-9999
▁journal	-10000
▁dataframe	-10001
▁colleagues	-10002
▁accommodate	-10003
$$	-10004
▁TH	-10005
Soup	-10006
esar	-10007
well	-10008
▁Ice	-10009
▁awe	-10010
ensus	-10011
▁rough	-10012
▁scrap	-10013
Average	-10014
▁liters	-10015
▁cameras	-10016
▁locally	-10017
▁vinegar	-10018
▁clusters	-10019
▁ultimate	-10020
▁workbook	-10021
▁Algorithm	-10022
▁expressing	-10023
CS	-10024
="#	-10025
cue	-10026
▁00	-10027
even	-10028
▁dia	-10029
riter	-10030
▁unable	-10031
▁evaluated	-10032
▁occurring	-10033
▁contributes	-10034
▁incorporated	-10035
cope	-10036
elly	-10037
▁NBA	-10038
Apple	-10039
Excel	-10040
movie	-10041
▁Prep	-10042
▁Thus	-10043
▁beat	-10044
▁slee	-10045
▁soul	-10046
▁vote	-10047
itamin	-10048
▁Civil	-10049
▁climb	-10050
▁Market	-10051
iological	-10052
▁accidents	-10053
▁cryptocur	-10054
▁compatible	-10055
▁influential	-10056
YZ	-10057
oz	-10058
aph	-10059
Info	-10060
Work	-10061
▁Hem	-10062
▁Sol	-10063
iller	-10064
vious	-10065
▁figur	-10066
▁flash	-10067
▁explor	-10068
▁compost	-10069
▁fantasy	-10070
▁thunder	-10071
▁advertis	-10072
▁integrity	-10073
▁allocation	-10074
▁overfitting	-10075
del	-10076
orie	-10077
▁19.	-10078
cycle	-10079
enery	-10080
iterr	-10081
ronym	-10082
▁fragr	-10083
▁regex	-10084
▁sunny	-10085
▁opened	-10086
▁channel	-10087
▁curious	-10088
▁momentum	-10089
iterranean	-10090
2"	-10091
kg	-10092
hem	-10093
she	-10094
▁0.8	-10095
▁Draw	-10096
▁rept	-10097
▁chair	-10098
▁enters	-10099
lections	-10100
▁encoded	-10101
▁superhero	-10102
2.5	-10103
berg	-10104
▁0.4	-10105
▁2-3	-10106
iffel	-10107
▁Pers	-10108
▁baby	-10109
▁teas	-10110
bottom	-10111
▁fishing	-10112
▁moderate	-10113
▁logarithm	-10114
▁methodology	-10115
▁intersection	-10116
2_	-10117
▁33	-10118
YOUR	-10119
arks	-10120
rape	-10121
▁Alp	-10122
chron	-10123
▁cond	-10124
▁dust	-10125
▁tast	-10126
astics	-10127
family	-10128
ounces	-10129
▁attempts	-10130
▁enabling	-10131
▁triangles	-10132
▁facilitate	-10133
▁explanations	-10134
Be	-10135
1);	-10136
▁Ang	-10137
▁Sym	-10138
▁pal	-10139
▁trial	-10140
▁Orange	-10141
▁featuring	-10142
▁preparing	-10143
▁matplotlib	-10144
▁scheduling	-10145
▁conclusions	-10146
0;	-10147
icip	-10148
▁Lib	-10149
alpha	-10150
ithub	-10151
▁Wall	-10152
▁outer	-10153
itemize	-10154
ivation	-10155
venture	-10156
ognition	-10157
▁extended	-10158
▁workload	-10159
▁administr	-10160
▁mushrooms	-10161
▁unpredict	-10162
▁adventures	-10163
Rem	-10164
bru	-10165
ione	-10166
pril	-10167
ying	-10168
▁GET	-10169
5,000	-10170
Lower	-10171
▁100%	-10172
▁Team	-10173
▁trou	-10174
screen	-10175
server	-10176
perties	-10177
▁actors	-10178
▁Digital	-10179
bersecurity	-10180
▁biological	-10181
▁documentation	-10182
Sw	-10183
](	-10184
abit	-10185
agle	-10186
ucks	-10187
▁ber	-10188
veget	-10189
▁hydr	-10190
▁sail	-10191
▁suff	-10192
▁dairy	-10193
▁humor	-10194
dataset	-10195
driving	-10196
protein	-10197
▁waters	-10198
▁severity	-10199
▁modifying	-10200
▁controlled	-10201
▁incredible	-10202
▁subsequent	-10203
]{	-10204
!")	-10205
NNs	-10206
bsp	-10207
▁Oh	-10208
agger	-10209
▁Stay	-10210
Vector	-10211
people	-10212
▁Texas	-10213
aughter	-10214
▁clicks	-10215
▁comedy	-10216
▁learns	-10217
▁outfit	-10218
ordinate	-10219
▁tourism	-10220
▁discussion	-10221
▁fascinating	-10222
▁transforming	-10223
Av	-10224
(3,	-10225
▁img	-10226
IMARY	-10227
▁holes	-10228
▁parad	-10229
inosaur	-10230
▁acknow	-10231
▁charity	-10232
▁cooling	-10233
▁consonant	-10234
▁portfolio	-10235
ME	-10236
exc	-10237
nes	-10238
▁unf	-10239
rames	-10240
▁Heat	-10241
▁Unit	-10242
arctic	-10243
▁doors	-10244
▁attach	-10245
▁indoor	-10246
▁divisor	-10247
▁actively	-10248
▁recently	-10249
+3	-10250
RA	-10251
fat	-10252
vow	-10253
▁Wi	-10254
oline	-10255
▁Lake	-10256
▁emit	-10257
nership	-10258
▁Banana	-10259
▁portion	-10260
▁seating	-10261
▁iterating	-10262
▁schedules	-10263
▁explaining	-10264
▁convenience	-10265
▁simulations	-10266
deg	-10267
apor	-10268
ocket	-10269
▁Snow	-10270
charge	-10271
▁remot	-10272
▁Chorus	-10273
▁Galaxy	-10274
▁shades	-10275
▁circuit	-10276
▁Multiply	-10277
▁Training	-10278
▁attending	-10279
▁assessment	-10280
▁behavioral	-10281
/1	-10282
2);	-10283
amic	-10284
imum	-10285
▁$1.	-10286
▁via	-10287
▁Lion	-10288
▁Love	-10289
▁Mart	-10290
▁drag	-10291
▁saves	-10292
▁lesson	-10293
▁Western	-10294
▁counting	-10295
▁numerator	-10296
▁definitions	-10297
bt	-10298
▁65	-10299
▁eru	-10300
acing	-10301
fraid	-10302
hello	-10303
osion	-10304
▁Sign	-10305
▁nine	-10306
strict	-10307
▁evoke	-10308
Request	-10309
iations	-10310
▁Gatsby	-10311
▁lessons	-10312
▁regional	-10313
▁emphasizing	-10314
(\	-10315
lo	-10316
lix	-10317
}{\	-10318
▁2^	-10319
rise	-10320
ruct	-10321
▁Bank	-10322
itance	-10323
ograms	-10324
▁Insert	-10325
▁render	-10326
▁tender	-10327
▁applies	-10328
▁dealing	-10329
▁diction	-10330
▁revised	-10331
▁motivations	-10332
▁perseverance	-10333
Acc	-10334
ulf	-10335
iest	-10336
▁(20	-10337
andon	-10338
nouns	-10339
▁Mind	-10340
▁youn	-10341
ulture	-10342
▁Elect	-10343
▁Human	-10344
▁Parse	-10345
largest	-10346
▁Weight	-10347
▁PRIMARY	-10348
▁lasting	-10349
▁modules	-10350
▁assuming	-10351
▁conveyed	-10352
▁dynamics	-10353
▁updating	-10354
▁lightweight	-10355
▁performances	-10356
mus	-10357
▁$6	-10358
▁Bal	-10359
▁Hol	-10360
fetch	-10361
▁0.00	-10362
▁2022	-10363
▁plots	-10364
isphere	-10365
issance	-10366
randint	-10367
▁rocket	-10368
▁familiar	-10369
▁referred	-10370
▁traveler	-10371
▁Recommend	-10372
▁augmented	-10373
▁enhancing	-10374
▁candidates	-10375
▁medication	-10376
▁declarative	-10377
curl	-10378
▁bee	-10379
▁Somet	-10380
▁chest	-10381
▁cosine	-10382
▁cursor	-10383
▁houses	-10384
▁locate	-10385
Analyzer	-10386
▁centers	-10387
▁cycling	-10388
▁rainbow	-10389
▁baseball	-10390
▁periodic	-10391
▁remotely	-10392
Controller	-10393
▁Transform	-10394
▁countless	-10395
▁necessarily	-10396
Ent	-10397
▁'_	-10398
ALSE	-10399
dist	-10400
sign	-10401
▁AVG	-10402
First	-10403
shape	-10404
▁Noun	-10405
▁sequ	-10406
Please	-10407
lessly	-10408
nowned	-10409
▁NumPy	-10410
▁afraid	-10411
▁losses	-10412
▁installation	-10413
▁strawberries	-10414
=2	-10415
fers	-10416
tune	-10417
▁Mic	-10418
▁tou	-10419
Items	-10420
erved	-10421
▁Press	-10422
▁Users	-10423
▁fluid	-10424
▁funny	-10425
▁Iterate	-10426
▁derived	-10427
▁profits	-10428
calculate	-10429
▁vertices	-10430
▁separately	-10431
▁accessories	-10432
▁respiratory	-10433
▁37	-10434
Open	-10435
Test	-10436
▁Sec	-10437
Float	-10438
▁sale	-10439
bruary	-10440
icular	-10441
▁spots	-10442
▁winds	-10443
▁creamy	-10444
▁melted	-10445
▁packed	-10446
standing	-10447
▁observe	-10448
▁winning	-10449
algorithm	-10450
▁payments	-10451
▁physically	-10452
(['	-10453
)):	-10454
xsl	-10455
ader	-10456
itan	-10457
rost	-10458
▁10-	-10459
white	-10460
▁Sing	-10461
▁shuff	-10462
▁tower	-10463
▁resume	-10464
duration	-10465
▁constit	-10466
▁guarant	-10467
▁Mediterranean	-10468
▁lad	-10469
Start	-10470
▁plus	-10471
IDIIDI	-10472
inated	-10473
▁tired	-10474
cycling	-10475
duction	-10476
storming	-10477
▁editing	-10478
▁unusual	-10479
▁artistic	-10480
▁addressed	-10481
Do	-10482
5),	-10483
End	-10484
stood	-10485
▁bugs	-10486
▁supp	-10487
idation	-10488
▁sudden	-10489
▁Samsung	-10490
▁emerged	-10491
▁loading	-10492
▁opponent	-10493
▁snippets	-10494
ustainable	-10495
▁oz	-10496
ushi	-10497
▁fer	-10498
verbs	-10499
ensive	-10500
▁shirt	-10501
▁Linear	-10502
▁caught	-10503
▁portray	-10504
▁sessions	-10505
▁tokenize	-10506
▁relativity	-10507
▁dictionaries	-10508
>2	-10509
(:,	-10510
.*;	-10511
ria	-10512
see	-10513
adow	-10514
▁Fit	-10515
▁USD	-10516
12345	-10517
ludes	-10518
plant	-10519
▁aims	-10520
▁turb	-10521
▁strain	-10522
▁laptops	-10523
▁manually	-10524
▁circumference	-10525
oa	-10526
iri	-10527
anza	-10528
echo	-10529
▁Lou	-10530
▁hat	-10531
separ	-10532
quired	-10533
▁seemed	-10534
stanford	-10535
▁listener	-10536
▁Mountains	-10537
▁Blockchain	-10538
Sl	-10539
alt	-10540
▁Az	-10541
▁tip	-10542
phony	-10543
github	-10544
▁penal	-10545
▁acting	-10546
▁forced	-10547
olitical	-10548
▁heating	-10549
▁accident	-10550
▁mentions	-10551
▁theories	-10552
▁Customers	-10553
▁protected	-10554
▁retrieval	-10555
▁identification	-10556
\"	-10557
nd	-10558
nel	-10559
mass	-10560
▁Leg	-10561
▁[];	-10562
▁hue	-10563
sweet	-10564
▁Oper	-10565
▁spat	-10566
holder	-10567
▁minor	-10568
▁tuple	-10569
▁Puzzle	-10570
breaking	-10571
▁dessert	-10572
▁disappe	-10573
Regression	-10574
▁inclusive	-10575
▁recursion	-10576
▁permutations	-10577
▁substitution	-10578
44	-10579
EG	-10580
doc	-10581
"));	-10582
igue	-10583
ober	-10584
this	-10585
▁Git	-10586
▁Van	-10587
▁csv	-10588
▁unw	-10589
theta	-10590
▁Rate	-10591
access	-10592
gments	-10593
ritious	-10594
▁Canyon	-10595
Frequency	-10596
▁predicts	-10597
▁presents	-10598
▁reputable	-10599
▁interfaces	-10600
▁governments	-10601
]}	-10602
','	-10603
("$	-10604
onts	-10605
▁Bas	-10606
▁rub	-10607
users	-10608
avings	-10609
▁eaten	-10610
▁woods	-10611
agnetic	-10612
▁Memory	-10613
▁ggplot	-10614
▁dollars	-10615
▁disorder	-10616
▁motivate	-10617
▁healthier	-10618
▁religious	-10619
▁distribute	-10620
▁contribution	-10621
▁ri	-10622
▁tf	-10623
comb	-10624
yles	-10625
▁'_',	-10626
▁Mass	-10627
▁irre	-10628
▁roads	-10629
▁landing	-10630
▁invented	-10631
▁Alternatively	-10632
▁unconventional	-10633
NS	-10634
owns	-10635
pling	-10636
▁tbsp	-10637
Result	-10638
itable	-10639
▁chick	-10640
rounded	-10641
▁Monitor	-10642
▁drinking	-10643
▁resulted	-10644
/>	-10645
mm	-10646
bel	-10647
bert	-10648
▁[2,	-10649
▁kin	-10650
riers	-10651
▁Prof	-10652
primes	-10653
▁Solve	-10654
▁baked	-10655
revenue	-10656
▁Island	-10657
lessness	-10658
▁Chatbot	-10659
▁knowing	-10660
▁playful	-10661
▁shining	-10662
▁outdoors	-10663
▁influences	-10664
▁mechanical	-10665
BM	-10666
mel	-10667
game	-10668
▁Rom	-10669
incip	-10670
▁Know	-10671
▁firm	-10672
▁forg	-10673
▁Every	-10674
▁Verse	-10675
▁actor	-10676
▁joint	-10677
▁slide	-10678
fternoon	-10679
▁markdown	-10680
dem	-10681
▁1.0	-10682
▁obj	-10683
▁pod	-10684
ivate	-10685
track	-10686
Employ	-10687
father	-10688
▁mitig	-10689
▁losing	-10690
ependent	-10691
learning	-10692
▁Control	-10693
▁Everest	-10694
▁alcohol	-10695
▁styling	-10696
▁explored	-10697
▁launched	-10698
▁multimedia	-10699
▁-3	-10700
alog	-10701
igma	-10702
arent	-10703
idesp	-10704
profit	-10705
writer	-10706
▁trick	-10707
▁gently	-10708
▁oldest	-10709
▁Seattle	-10710
▁acronym	-10711
idespread	-10712
▁Atlantic	-10713
▁Elephant	-10714
▁existence	-10715
▁prominent	-10716
▁occupation	-10717
(&	-10718
▁UK	-10719
▁Den	-10720
bsite	-10721
▁bits	-10722
▁pent	-10723
▁weap	-10724
eneath	-10725
▁court	-10726
success	-10727
▁hybrid	-10728
▁poetic	-10729
▁pollut	-10730
▁refres	-10731
▁hospital	-10732
▁recovery	-10733
▁disorders	-10734
▁ecological	-10735
▁summarizing	-10736
▁BeautifulSoup	-10737
.'	-10738
SUM	-10739
▁42	-10740
[0])	-10741
unks	-10742
▁bow	-10743
cious	-10744
istan	-10745
▁Card	-10746
apache	-10747
▁Focus	-10748
appoint	-10749
▁failed	-10750
▁splits	-10751
▁trains	-10752
▁invalid	-10753
ependence	-10754
intercept	-10755
▁enjoying	-10756
▁receiving	-10757
▁connecting	-10758
▁possibility	-10759
▁dependencies	-10760
▁Transportation	-10761
▁interconnected	-10762
IST	-10763
kin	-10764
fire	-10765
ours	-10766
▁Thom	-10767
▁hike	-10768
Search	-10769
thetic	-10770
▁Nobel	-10771
▁Sleep	-10772
▁neuro	-10773
ilation	-10774
▁Source	-10775
▁parsed	-10776
ineapple	-10777
venience	-10778
▁managed	-10779
▁seafood	-10780
▁historic	-10781
▁isolation	-10782
▁phenomena	-10783
▁geological	-10784
▁nutritious	-10785
NO	-10786
ano	-10787
den	-10788
izz	-10789
rons	-10790
▁Cup	-10791
▁coop	-10792
▁unsc	-10793
▁aster	-10794
▁10,000	-10795
▁Battle	-10796
▁Berlin	-10797
▁prefix	-10798
purchase	-10799
▁Charlie	-10800
▁diagram	-10801
▁hearing	-10802
▁Programming	-10803
▁proportional	-10804
▁notifications	-10805
86	-10806
(0)	-10807
1",	-10808
Equ	-10809
▁ET	-10810
uses	-10811
▁Egg	-10812
▁Found	-10813
▁genes	-10814
▁dispos	-10815
▁drives	-10816
Response	-10817
▁compile	-10818
▁scanner	-10819
▁election	-10820
▁configuration	-10821
bin	-10822
ipl	-10823
▁ce	-10824
Spec	-10825
▁$2.	-10826
Close	-10827
▁sacr	-10828
enefit	-10829
▁Queen	-10830
▁stead	-10831
itivity	-10832
uddenly	-10833
▁Eiffel	-10834
▁mapping	-10835
▁partial	-10836
▁watched	-10837
Character	-10838
▁December	-10839
▁authority	-10840
▁sweetness	-10841
▁encouraging	-10842
EC	-10843
avy	-10844
▁Ha	-10845
▁25.	-10846
▁Pan	-10847
▁lib	-10848
▁Sand	-10849
▁chord	-10850
ideline	-10851
▁bigger	-10852
DDDDDDDD	-10853
▁embrace	-10854
▁collapse	-10855
▁princess	-10856
ElementsBy	-10857
▁ownership	-10858
▁identifier	-10859
▁widespread	-10860
▁introducing	-10861
(6	-10862
(`	-10863
)"	-10864
VP	-10865
1.0	-10866
ulo	-10867
erty	-10868
foot	-10869
▁17.	-10870
▁ATP	-10871
▁Bon	-10872
▁Law	-10873
▁POS	-10874
▁jew	-10875
isher	-10876
tbody	-10877
urning	-10878
▁Increase	-10879
▁climbing	-10880
▁coherent	-10881
▁occasion	-10882
▁variance	-10883
1`	-10884
3:	-10885
App	-10886
▁vs	-10887
aced	-10888
love	-10889
store	-10890
▁Flor	-10891
▁Rest	-10892
▁gran	-10893
▁fluct	-10894
▁finger	-10895
▁feeding	-10896
▁flights	-10897
El	-10898
iw	-10899
-25	-10900
2",	-10901
lsx	-10902
ench	-10903
ymes	-10904
▁$1,	-10905
▁Adv	-10906
▁pra	-10907
aphor	-10908
integ	-10909
▁Turn	-10910
▁bees	-10911
▁gone	-10912
▁maze	-10913
iraffe	-10914
onders	-10915
▁Format	-10916
▁minced	-10917
ReadLine	-10918
▁museums	-10919
▁palette	-10920
▁concrete	-10921
▁hashtags	-10922
background	-10923
ordination	-10924
▁delivered	-10925
mic	-10926
aved	-10927
ride	-10928
▁ate	-10929
iches	-10930
▁Wars	-10931
▁wake	-10932
Action	-10933
ervous	-10934
icture	-10935
normal	-10936
square	-10937
▁Modify	-10938
▁casual	-10939
▁defeat	-10940
▁brainstorm	-10941
▁showcasing	-10942
▁hypothetical	-10943
▁demonstrating	-10944
IO	-10945
City	-10946
poch	-10947
thead	-10948
▁dice	-10949
▁plug	-10950
Create	-10951
figure	-10952
ickets	-10953
▁Close	-10954
▁corre	-10955
▁north	-10956
▁valued	-10957
▁dialect	-10958
▁Republic	-10959
▁carrying	-10960
▁textures	-10961
▁versions	-10962
characters	-10963
▁composite	-10964
▁repetition	-10965
▁antioxidants	-10966
etah	-10967
oved	-10968
▁san	-10969
Layer	-10970
matic	-10971
▁meth	-10972
▁ring	-10973
▁yields	-10974
Category	-10975
▁Setting	-10976
▁Whether	-10977
▁followers	-10978
▁paintings	-10979
▁suspicious	-10980
▁uncertainty	-10981
▁interventions	-10982
>>	-10983
sg	-10984
2),	-10985
EST	-10986
win	-10987
lows	-10988
umns	-10989
▁ped	-10990
afety	-10991
apped	-10992
blesh	-10993
sting	-10994
▁sword	-10995
▁vocal	-10996
english	-10997
▁Eating	-10998
▁poster	-10999
▁sender	-11000
▁suited	-11001
▁tensor	-11002
▁Express	-11003
▁numeric	-11004
▁attitude	-11005
▁intervention	-11006
IG	-11007
(*)	-11008
agu	-11009
hett	-11010
Width	-11011
▁bark	-11012
▁tort	-11013
Rating	-11014
ension	-11015
secret	-11016
▁Child	-11017
▁shore	-11018
▁intent	-11019
▁rabbit	-11020
▁repair	-11021
▁subtle	-11022
aissance	-11023
▁feathers	-11024
▁replaces	-11025
performance	-11026
▁underwater	-11027
#,	-11028
10.	-11029
arn	-11030
▁(6	-11031
ulum	-11032
▁Ven	-11033
▁aer	-11034
mysql	-11035
perty	-11036
ratic	-11037
ushed	-11038
▁neut	-11039
colors	-11040
▁Email	-11041
▁chaos	-11042
▁hesit	-11043
▁Caesar	-11044
▁encomp	-11045
▁thesis	-11046
▁exhibit	-11047
▁gradually	-11048
▁figurative	-11049
▁passengers	-11050
▁contrasting	-11051
*(	-11052
Box	-11053
loc	-11054
occ	-11055
uum	-11056
Cons	-11057
hedu	-11058
sound	-11059
▁Bill	-11060
▁Mand	-11061
aurant	-11062
incipal	-11063
pattern	-11064
▁Middle	-11065
▁plates	-11066
▁demands	-11067
▁Quantity	-11068
▁Suddenly	-11069
▁Regarding	-11070
▁leveraging	-11071
▁satisfying	-11072
87	-11073
{}	-11074
-30	-11075
oil	-11076
mail	-11077
tail	-11078
▁LED	-11079
etics	-11080
otics	-11081
▁Fill	-11082
▁cues	-11083
minute	-11084
▁Games	-11085
▁modes	-11086
▁tight	-11087
▁tutor	-11088
reverse	-11089
▁tracks	-11090
Customer	-11091
▁Michael	-11092
▁farming	-11093
▁monarch	-11094
▁proceed	-11095
▁travels	-11096
▁investments	-11097
▁alphabetically	-11098
If	-11099
squ	-11100
▁hyp	-11101
Alice	-11102
asant	-11103
izers	-11104
▁Land	-11105
▁Rain	-11106
▁"2021	-11107
▁occup	-11108
▁sells	-11109
TagName	-11110
▁parser	-11111
▁recycle	-11112
▁removes	-11113
▁celebrated	-11114
door	-11115
tage	-11116
walk	-11117
Group	-11118
rices	-11119
▁Mamm	-11120
▁gate	-11121
▁gear	-11122
Values	-11123
ablish	-11124
icycle	-11125
▁eager	-11126
▁tries	-11127
▁Arrange	-11128
▁calming	-11129
▁origins	-11130
istorical	-11131
▁nitrogen	-11132
▁relaxing	-11133
▁Experience	-11134
▁authorized	-11135
▁programmer	-11136
▁proportion	-11137
▁captivating	-11138
▁observation	-11139
▁customization	-11140
Tra	-11141
het	-11142
▁52	-11143
▁95	-11144
clip	-11145
sers	-11146
▁spa	-11147
black	-11148
opher	-11149
▁Jour	-11150
▁tiss	-11151
commun	-11152
▁Decide	-11153
▁missed	-11154
▁preced	-11155
Features	-11156
▁extinct	-11157
▁accepted	-11158
▁vertical	-11159
▁Different	-11160
▁Dictionary	-11161
▁entrepreneurs	-11162
$",	-11163
Che	-11164
EXT	-11165
eed	-11166
▁Mr	-11167
▁Ol	-11168
Life	-11169
POST	-11170
ading	-11171
dings	-11172
onder	-11173
▁Foot	-11174
▁tack	-11175
▁meter	-11176
▁moral	-11177
▁seats	-11178
▁nation	-11179
▁residents	-11180
▁secondary	-11181
▁Temperature	-11182
▁frequencies	-11183
WE	-11184
osh	-11185
▁Sy	-11186
Head	-11187
acon	-11188
unit	-11189
▁2);	-11190
▁mir	-11191
gence	-11192
watch	-11193
Answer	-11194
spring	-11195
unting	-11196
▁Beach	-11197
▁giant	-11198
▁advers	-11199
▁deeply	-11200
\_\_\_\_	-11201
▁brother	-11202
▁harvest	-11203
▁nervous	-11204
▁putting	-11205
▁Although	-11206
▁volcanic	-11207
Population	-11208
▁immediate	-11209
▁perfectly	-11210
▁attraction	-11211
▁extracting	-11212
''	-11213
ads	-11214
igm	-11215
uls	-11216
▁$"	-11217
ario	-11218
▁Mah	-11219
▁fee	-11220
alies	-11221
Column	-11222
Energy	-11223
aghett	-11224
nament	-11225
▁batch	-11226
Invalid	-11227
▁pixels	-11228
▁ticket	-11229
▁dangers	-11230
▁enhanced	-11231
▁majority	-11232
▁lightning	-11233
▁credentials	-11234
_3	-11235
1),	-11236
Art	-11237
\":	-11238
▁9:	-11239
seen	-11240
uing	-11241
▁rat	-11242
Green	-11243
apsed	-11244
▁tale	-11245
▁Distr	-11246
▁elder	-11247
Manager	-11248
▁Common	-11249
▁INSERT	-11250
▁awards	-11251
▁borrow	-11252
▁proven	-11253
▁scoring	-11254
▁deployment	-11255
OM	-11256
yy	-11257
Dat	-11258
Day	-11259
▁-5	-11260
▁Nov	-11261
▁swe	-11262
▁disk	-11263
▁sole	-11264
INSERT	-11265
▁norms	-11266
raphics	-11267
▁Adjust	-11268
▁belief	-11269
▁confir	-11270
▁ounces	-11271
▁peanut	-11272
▁divides	-11273
▁harmony	-11274
▁sourced	-11275
▁consuming	-11276
▁discovers	-11277
▁complaints	-11278
▁passionate	-11279
▁Implementing	-11280
▁coordination	-11281
eal	-11282
▁*/	-11283
clam	-11284
▁Enh	-11285
▁mic	-11286
ounce	-11287
▁Conc	-11288
Writer	-11289
labels	-11290
reduce	-11291
▁Index	-11292
▁bears	-11293
▁chili	-11294
▁fertil	-11295
▁galaxy	-11296
▁quinoa	-11297
▁timely	-11298
▁winner	-11299
▁Testing	-11300
▁Renaissance	-11301
▁Personalized	-11302
▁entrepreneur	-11303
▁personalities	-11304
meg	-11305
▁49	-11306
Term	-11307
▁Wood	-11308
▁batt	-11309
▁encl	-11310
▁jazz	-11311
▁sick	-11312
Button	-11313
Friend	-11314
▁Speed	-11315
▁autumn	-11316
▁Scanner	-11317
▁sectors	-11318
endicular	-11319
fficiency	-11320
placement	-11321
▁anagrams	-11322
▁securely	-11323
:\	-11324
ivia	-11325
appro	-11326
reens	-11327
ungle	-11328
worth	-11329
▁fake	-11330
▁Future	-11331
▁streng	-11332
rogative	-11333
▁instruct	-11334
▁applicable	-11335
▁correspond	-11336
▁agricultural	-11337
▁arrangements	-11338
Co	-11339
Up	-11340
-2)	-11341
Fat	-11342
▁Lead	-11343
▁Song	-11344
▁sear	-11345
mother	-11346
textit	-11347
▁Party	-11348
▁perce	-11349
▁piano	-11350
service	-11351
▁Apples	-11352
▁cloves	-11353
▁hearts	-11354
▁filename	-11355
▁neighbors	-11356
▁repetitive	-11357
Cy	-11358
("-	-11359
aska	-11360
pons	-11361
▁197	-11362
▁Pen	-11363
▁edu	-11364
▁Iron	-11365
00,000	-11366
abitat	-11367
▁Visit	-11368
▁Global	-11369
▁Linked	-11370
▁encaps	-11371
▁fierce	-11372
▁berries	-11373
▁delight	-11374
container	-11375
▁cinnamon	-11376
▁learners	-11377
▁wireless	-11378
▁detecting	-11379
▁horizontal	-11380
▁interpreted	-11381
getElementsBy	-11382
-6	-11383
SU	-11384
!",	-11385
Yes	-11386
pow	-11387
▁85	-11388
OUNT	-11389
town	-11390
amboo	-11391
embly	-11392
▁stain	-11393
reading	-11394
▁varies	-11395
▁durable	-11396
▁gallons	-11397
▁wealthy	-11398
▁confusion	-11399
▁executive	-11400
▁thermostat	-11401
)?	-11402
39	-11403
rd	-11404
make	-11405
▁Ent	-11406
▁Lab	-11407
▁Yog	-11408
▁bind	-11409
▁drum	-11410
▁pret	-11411
flower	-11412
▁broth	-11413
▁overs	-11414
aghetti	-11415
otional	-11416
▁Within	-11417
▁masses	-11418
▁serene	-11419
▁Species	-11420
▁listing	-11421
▁Students	-11422
▁Subtract	-11423
▁appeared	-11424
▁dinosaur	-11425
▁proposal	-11426
▁wellness	-11427
▁attendees	-11428
▁referring	-11429
▁assignments	-11430
documentclass	-11431
▁customizable	-11432
CV	-11433
(50	-11434
idx	-11435
iou	-11436
ttp	-11437
▁0.7	-11438
▁Gal	-11439
▁exit	-11440
▁jack	-11441
-01-01	-11442
oodles	-11443
▁Bring	-11444
▁Trees	-11445
▁Juliet	-11446
▁suffix	-11447
▁Address	-11448
▁Quantum	-11449
▁Networks	-11450
▁broccoli	-11451
▁adaptation	-11452
▁destruction	-11453
▁complexities	-11454
▁physiological	-11455
▁unpredictable	-11456
Pre	-11457
tax	-11458
▁Mc	-11459
▁Rh	-11460
abil	-11461
grow	-11462
xlsx	-11463
▁corn	-11464
▁Craft	-11465
▁March	-11466
▁chose	-11467
▁niche	-11468
agation	-11469
▁paying	-11470
▁relief	-11471
▁resort	-11472
▁safely	-11473
filtered	-11474
toString	-11475
▁Florida	-11476
▁distant	-11477
▁lettuce	-11478
▁tallest	-11479
▁Electric	-11480
▁Optimize	-11481
▁suggesting	-11482
▁influencers	-11483
cend	-11484
▁27,	-11485
▁ome	-11486
▁ton	-11487
Speed	-11488
▁(200	-11489
stones	-11490
▁steel	-11491
▁suffer	-11492
plicated	-11493
▁Chicken	-11494
quisition	-11495
▁Positive	-11496
▁browsers	-11497
▁enhances	-11498
▁timestamp	-11499
Ingredients	-11500
▁Department	-11501
▁conference	-11502
▁respiration	-11503
▁functionalities	-11504
▁–	-11505
(",	-11506
oto	-11507
ris	-11508
▁Sa	-11509
azed	-11510
outs	-11511
umble	-11512
▁eleg	-11513
hedule	-11514
liness	-11515
ounder	-11516
ramble	-11517
▁Little	-11518
▁inserted	-11519
▁salaries	-11520
▁audiences	-11521
▁assignment	-11522
▁astronauts	-11523
▁autonomous	-11524
▁facilities	-11525
▁simplified	-11526
▁subjective	-11527
▁partnership	-11528
obj	-11529
(10,	-11530
Serv	-11531
anda	-11532
atar	-11533
quer	-11534
▁rig	-11535
COUNT	-11536
▁Self	-11537
▁grab	-11538
▁chrom	-11539
▁south	-11540
▁vapor	-11541
▁breeds	-11542
▁scored	-11543
▁shower	-11544
▁wooden	-11545
acherous	-11546
material	-11547
▁episode	-11548
valuation	-11549
▁readable	-11550
▁anomalies	-11551
▁philosophy	-11552
▁streamline	-11553
▁Performance	-11554
▁exponential	-11555
CP	-11556
Food	-11557
core	-11558
good	-11559
prop	-11560
▁sch	-11561
▁bake	-11562
▁tons	-11563
▁Small	-11564
▁prism	-11565
obility	-11566
▁Assume	-11567
▁savory	-11568
Contains	-11569
▁isolate	-11570
▁parking	-11571
▁spectrum	-11572
▁hierarchy	-11573
atisfaction	-11574
>(	-11575
:',	-11576
▁mn	-11577
▁[3,	-11578
▁blo	-11579
urple	-11580
▁Phil	-11581
▁panc	-11582
▁login	-11583
avenger	-11584
▁assert	-11585
▁driven	-11586
▁fluffy	-11587
▁breathe	-11588
▁compete	-11589
▁studied	-11590
ferencing	-11591
▁Question	-11592
▁adjusted	-11593
▁discussed	-11594
▁reflection	-11595
▁breathtaking	-11596
▁transparency	-11597
Cap	-11598
Why	-11599
unc	-11600
yer	-11601
▁Box	-11602
▁suits	-11603
factors	-11604
riction	-11605
boarding	-11606
▁declare	-11607
▁graphic	-11608
▁singing	-11609
▁Antarctic	-11610
▁decreased	-11611
▁decrypted	-11612
▁vegetation	-11613
▁championship	-11614
▁perpendicular	-11615
.<	-11616
Kit	-11617
Top	-11618
ogh	-11619
hash	-11620
ivals	-11621
ogiri	-11622
asting	-11623
ibrium	-11624
recipe	-11625
scient	-11626
▁dried	-11627
display	-11628
▁wedding	-11629
translate	-11630
▁Activity	-11631
▁democracy	-11632
▁digestive	-11633
▁preserving	-11634
/(	-11635
43	-11636
ya	-11637
odd	-11638
▁CD	-11639
agna	-11640
gets	-11641
plyr	-11642
▁Base	-11643
▁Even	-11644
▁Size	-11645
ingers	-11646
▁Agile	-11647
▁firew	-11648
alaxies	-11649
▁mutual	-11650
▁wizard	-11651
eptember	-11652
▁October	-11653
servation	-11654
▁cellular	-11655
▁director	-11656
▁dressing	-11657
▁humorous	-11658
▁intervals	-11659
▁understood	-11660
▁proficiency	-11661
Ve	-11662
ibi	-11663
ona	-11664
ped	-11665
okes	-11666
onna	-11667
▁28,	-11668
▁Old	-11669
aware	-11670
▁torn	-11671
▁horse	-11672
▁roller	-11673
calories	-11674
perience	-11675
▁abandon	-11676
▁calcium	-11677
▁endless	-11678
▁washing	-11679
mentation	-11680
▁festival	-11681
▁groceries	-11682
▁simulates	-11683
▁interviews	-11684
▁categorical	-11685
▁segmentation	-11686
27	-11687
49	-11688
▁±	-11689
(5)	-11690
▁od	-11691
pret	-11692
▁Rub	-11693
aurus	-11694
flies	-11695
while	-11696
▁hack	-11697
▁shut	-11698
aining	-11699
▁wheat	-11700
English	-11701
verages	-11702
▁papers	-11703
▁calculus	-11704
▁literacy	-11705
▁profiles	-11706
▁smoothly	-11707
▁rearranged	-11708
▁subscription	-11709
▁accomplishments	-11710
%'	-11711
hr	-11712
rup	-11713
▁$(	-11714
▁22,	-11715
▁Lee	-11716
▁Pal	-11717
▁100;	-11718
▁Only	-11719
▁TRUE	-11720
▁fans	-11721
▁vend	-11722
attery	-11723
equals	-11724
▁Brown	-11725
iration	-11726
▁Robert	-11727
▁alerts	-11728
interest	-11729
▁Success	-11730
▁calorie	-11731
▁colored	-11732
▁portable	-11733
▁releases	-11734
▁searches	-11735
▁detective	-11736
▁guideline	-11737
textContent	-11738
▁straightforward	-11739
200	-11740
▁Bi	-11741
bage	-11742
grid	-11743
stry	-11744
▁Dark	-11745
▁Hard	-11746
▁gard	-11747
▁aside	-11748
▁tempo	-11749
▁Bridge	-11750
▁enjoys	-11751
▁rhymes	-11752
▁voting	-11753
▁Limited	-11754
▁cleaner	-11755
▁volumes	-11756
▁renowned	-11757
▁endurance	-11758
▁Healthcare	-11759
▁treacherous	-11760
▁(7	-11761
▁(8	-11762
amed	-11763
reme	-11764
uler	-11765
▁Hot	-11766
▁maj	-11767
itals	-11768
▁Hind	-11769
▁Mean	-11770
▁chir	-11771
arched	-11772
▁bones	-11773
▁drain	-11774
▁suppl	-11775
▁idioms	-11776
▁discipl	-11777
▁currents	-11778
▁delivering	-11779
Ext	-11780
Not	-11781
Rep	-11782
▁/*	-11783
▁[[	-11784
lets	-11785
star	-11786
utch	-11787
▁24,	-11788
opian	-11789
▁Gogh	-11790
▁defe	-11791
mathbf	-11792
▁depos	-11793
▁fault	-11794
Weather	-11795
olation	-11796
▁Butter	-11797
▁Eastern	-11798
▁elderly	-11799
▁Organize	-11800
▁electrom	-11801
▁batteries	-11802
▁teenagers	-11803
▁contextual	-11804
▁developments	-11805
+5	-11806
/7	-11807
you	-11808
▁Cir	-11809
▁Sch	-11810
Parse	-11811
acies	-11812
▁1990	-11813
▁tank	-11814
bility	-11815
metric	-11816
▁April	-11817
▁asset	-11818
▁drama	-11819
▁herbiv	-11820
▁impair	-11821
▁legacy	-11822
▁bringing	-11823
▁incident	-11824
▁celebrate	-11825
▁initially	-11826
▁homophones	-11827
grep	-11828
▁29,	-11829
Names	-11830
bound	-11831
rying	-11832
▁arts	-11833
ggplot	-11834
▁Share	-11835
integer	-11836
▁crimin	-11837
▁critic	-11838
▁fought	-11839
▁chances	-11840
▁fatigue	-11841
▁galaxies	-11842
▁seasonal	-11843
▁Sometimes	-11844
▁disappoint	-11845
▁psychology	-11846
▁participation	-11847
/10	-11848
Web	-11849
cket	-11850
▁$50	-11851
▁AWS	-11852
▁Tre	-11853
irgin	-11854
▁Emma	-11855
▁dict	-11856
Height	-11857
▁2021,	-11858
▁Govern	-11859
▁devast	-11860
latitude	-11861
▁Integer	-11862
▁Manager	-11863
▁bravery	-11864
▁regards	-11865
▁Cultural	-11866
▁functioning	-11867
▁masterpiece	-11868
▁overwhelmed	-11869
▁progression	-11870
▁domesticated	-11871
68	-11872
how	-11873
anta	-11874
idae	-11875
seud	-11876
uces	-11877
▁ABC	-11878
amber	-11879
▁byte	-11880
ferred	-11881
▁Fruit	-11882
▁blind	-11883
▁leaks	-11884
▁proud	-11885
▁Spring	-11886
gredient	-11887
▁symphony	-11888
▁conscious	-11889
▁partition	-11890
▁storyline	-11891
▁manageable	-11892
!)	-11893
={	-11894
0.0	-11895
ami	-11896
Wind	-11897
▁Sen	-11898
▁ears	-11899
▁logs	-11900
▁cinem	-11901
▁incom	-11902
endment	-11903
▁retire	-11904
▁showed	-11905
yllables	-11906
▁Element	-11907
▁HashMap	-11908
▁Reading	-11909
Intensity	-11910
▁divisors	-11911
▁injuries	-11912
▁childhood	-11913
▁explained	-11914
▁brainstorming	-11915
("%	-11916
bul	-11917
sea	-11918
▁ast	-11919
▁rib	-11920
Water	-11921
olkit	-11922
rible	-11923
ensils	-11924
region	-11925
▁crash	-11926
▁rooms	-11927
▁spoon	-11928
okogiri	-11929
▁Mental	-11930
▁intrig	-11931
▁novels	-11932
▁vacuum	-11933
▁imaging	-11934
▁radians	-11935
▁traject	-11936
▁feasible	-11937
▁whenever	-11938
▁identical	-11939
▁Justification	-11940
▁cybersecurity	-11941
2`	-11942
}'	-11943
00)	-11944
zip	-11945
▁pm	-11946
perm	-11947
▁5-7	-11948
▁Sat	-11949
prise	-11950
proof	-11951
▁Lisa	-11952
▁nose	-11953
▁pump	-11954
Method	-11955
images	-11956
eliness	-11957
▁Custom	-11958
▁aligns	-11959
▁feline	-11960
▁prince	-11961
▁Revenue	-11962
▁Features	-11963
▁Northern	-11964
▁cylinder	-11965
▁delicate	-11966
categories	-11967
components	-11968
▁promotion	-11969
▁sensitivity	-11970
▁hierarchical	-11971
▁refrigerator	-11972
"><	-11973
Min	-11974
hot	-11975
▁DC	-11976
▁];	-11977
▁wise	-11978
Insert	-11979
decode	-11980
▁beats	-11981
▁scala	-11982
▁sleek	-11983
plicity	-11984
▁delete	-11985
▁shadow	-11986
training	-11987
▁inverse	-11988
▁painted	-11989
▁incentiv	-11990
▁striking	-11991
validation	-11992
▁Potential	-11993
▁graphical	-11994
▁recording	-11995
▁troublesh	-11996
LEN	-11997
iki	-11998
▁Pi	-11999
uent	-12000
▁mur	-12001
itize	-12002
ysics	-12003
▁fate	-12004
▁lean	-12005
Animal	-12006
avirus	-12007
▁churn	-12008
uristic	-12009
▁ginger	-12010
▁Solving	-12011
▁Toolkit	-12012
10,	-12013
99,	-12014
iar	-12015
oni	-12016
▁"=	-12017
▁-=	-12018
Inte	-12019
▁123	-12020
▁Exc	-12021
aeiou	-12022
▁Lord	-12023
▁grep	-12024
▁proc	-12025
Series	-12026
itches	-12027
uminum	-12028
▁Local	-12029
emotion	-12030
▁senses	-12031
▁Compute	-12032
anglement	-12033
▁bustling	-12034
▁citation	-12035
▁incredibly	-12036
▁overwhelming	-12037
>$	-12038
pa	-12039
▁Eu	-12040
HERE	-12041
brev	-12042
▁Mad	-12043
▁sen	-12044
▁uns	-12045
False	-12046
rated	-12047
▁Does	-12048
▁Rear	-12049
▁boil	-12050
▁aroma	-12051
▁compl	-12052
▁queen	-12053
▁taught	-12054
onavirus	-12055
▁checked	-12056
▁fprintf	-12057
▁illness	-12058
employees	-12059
▁laughter	-12060
▁populate	-12061
▁restrict	-12062
▁stations	-12063
▁assigning	-12064
▁travelers	-12065
▁conversations	-12066
)$	-12067
($"	-12068
Lear	-12069
burg	-12070
meal	-12071
obic	-12072
▁-->	-12073
▁hop	-12074
Split	-12075
oviet	-12076
shine	-12077
utable	-12078
▁agree	-12079
▁jokes	-12080
▁pride	-12081
▁Portug	-12082
▁merged	-12083
▁versus	-12084
▁Problem	-12085
▁borders	-12086
▁domains	-12087
▁grouped	-12088
▁heights	-12089
▁markers	-12090
▁Providing	-12091
▁metabolism	-12092
▁personification	-12093
Did	-12094
▁1-2	-12095
▁350	-12096
front	-12097
isure	-12098
otton	-12099
ursor	-12100
uster	-12101
▁Like	-12102
▁phon	-12103
▁tofu	-12104
ynamic	-12105
▁Round	-12106
▁adult	-12107
▁drawn	-12108
▁fonts	-12109
▁spicy	-12110
▁Compan	-12111
▁Season	-12112
▁honest	-12113
▁beneath	-12114
▁February	-12115
▁Standard	-12116
▁checkout	-12117
▁opposing	-12118
▁artifacts	-12119
▁summarizes	-12120
▁departments	-12121
▁discoveries	-12122
(?	-12123
amps	-12124
arin	-12125
dest	-12126
urnal	-12127
▁Writ	-12128
▁span	-12129
olitan	-12130
▁Stone	-12131
▁Speech	-12132
▁Strong	-12133
▁hiring	-12134
▁termin	-12135
▁nucleus	-12136
▁Developing	-12137
▁irrelevant	-12138
▁universities	-12139
▁unstructured	-12140
▁complementary	-12141
-7	-12142
800	-12143
eor	-12144
ker	-12145
non	-12146
▁Nor	-12147
▁cow	-12148
▁Aust	-12149
▁Bake	-12150
▁fold	-12151
iddles	-12152
▁Query	-12153
▁cabin	-12154
▁knife	-12155
▁footer	-12156
▁protot	-12157
▁whales	-12158
▁whites	-12159
consuming	-12160
▁Distance	-12161
▁Engineer	-12162
▁clicking	-12163
▁designer	-12164
▁diagnose	-12165
▁exponent	-12166
▁Highlight	-12167
effectiveness	-12168
▁representations	-12169
dp	-12170
fox	-12171
▁$7	-12172
▁/>	-12173
▁`[	-12174
elry	-12175
epal	-12176
lers	-12177
▁fem	-12178
▁pork	-12179
▁wolf	-12180
issing	-12181
▁fauna	-12182
▁herit	-12183
habitat	-12184
▁Soviet	-12185
filename	-12186
▁entries	-12187
▁equally	-12188
▁lighter	-12189
▁Together	-12190
▁Tokenize	-12191
▁gasoline	-12192
▁improves	-12193
▁afternoon	-12194
▁digestion	-12195
▁relational	-12196
▁difficulties	-12197
▁qualifications	-12198
SA	-12199
je	-12200
oft	-12201
1111	-12202
fing	-12203
▁31,	-12204
luded	-12205
▁ampl	-12206
comfor	-12207
covery	-12208
rowave	-12209
▁Music	-12210
▁Romeo	-12211
▁aimed	-12212
▁Deploy	-12213
▁cherry	-12214
▁frozen	-12215
▁picked	-12216
Position	-12217
▁History	-12218
▁federal	-12219
▁breaches	-12220
▁debugging	-12221
▁predicate	-12222
▁acquisition	-12223
^2,	-12224
bor	-12225
font	-12226
▁liv	-12227
Token	-12228
ockey	-12229
▁Wild	-12230
▁horm	-12231
emonic	-12232
▁acids	-12233
extract	-12234
▁twists	-12235
▁handles	-12236
▁shuffle	-12237
▁subscri	-12238
individual	-12239
▁chemicals	-12240
▁unordered	-12241
▁regulation	-12242
▁rearranging	-12243
46	-12244
92	-12245
Gu	-12246
(4)	-12247
Sim	-12248
eem	-12249
("\\	-12250
-01-0	-12251
polar	-12252
Parser	-12253
binary	-12254
issors	-12255
▁Merge	-12256
▁pixel	-12257
▁rises	-12258
▁stuck	-12259
foreach	-12260
▁Thomas	-12261
▁Explore	-12262
▁agility	-12263
▁beloved	-12264
▁expense	-12265
customers	-12266
▁rustling	-12267
▁intersect	-12268
▁advancement	-12269
▁metaphorical	-12270
"/>	-12271
▁44	-12272
▁72	-12273
meta	-12274
There	-12275
eness	-12276
▁Clue	-12277
▁Page	-12278
▁bone	-12279
▁clin	-12280
Option	-12281
▁Brand	-12282
▁alike	-12283
▁brack	-12284
▁carbs	-12285
▁cubes	-12286
▁jelly	-12287
▁panic	-12288
▁recre	-12289
▁extend	-12290
▁airport	-12291
▁scaling	-12292
▁screens	-12293
enumerate	-12294
▁astronom	-12295
▁Establish	-12296
▁Advantages	-12297
|-------------|	-12298
+4	-12299
1-	-12300
dra	-12301
syns	-12302
▁Pet	-12303
▁aux	-12304
▁awk	-12305
▁wel	-12306
<>();	-12307
chiev	-12308
usage	-12309
urious	-12310
▁Marvel	-12311
▁Mobile	-12312
urations	-12313
▁factory	-12314
▁powered	-12315
▁Southern	-12316
▁polarity	-12317
▁factorization	-12318
▁accomplishment	-12319
MM	-12320
▁5%	-12321
▁IT	-12322
▁Ro	-12323
They	-12324
greg	-12325
▁"))	-12326
▁arc	-12327
graph	-12328
strip	-12329
▁1980	-12330
efined	-12331
remove	-12332
▁Story	-12333
▁stimul	-12334
▁declared	-12335
▁acknowled	-12336
▁belonging	-12337
▁imaginary	-12338
▁relations	-12339
Temperature	-12340
▁continents	-12341
▁retrieving	-12342
▁trajectory	-12343
▁differently	-12344
'}	-12345
Doc	-12346
▁"#	-12347
auto	-12348
▁Rye	-12349
State	-12350
ceeds	-12351
ooked	-12352
▁Flex	-12353
▁Four	-12354
illion	-12355
sterol	-12356
▁epoch	-12357
▁lunar	-12358
▁Matrix	-12359
▁sqlite	-12360
electric	-12361
igration	-12362
▁Thrones	-12363
▁enzymes	-12364
Statement	-12365
▁Incorrect	-12366
▁employers	-12367
▁kilograms	-12368
▁frustration	-12369
▁photography	-12370
=3	-12371
PM	-12372
haps	-12373
song	-12374
▁$500	-12375
▁fell	-12376
▁nice	-12377
method	-12378
▁Adapt	-12379
▁membr	-12380
▁unfor	-12381
▁Office	-12382
▁python	-12383
▁trails	-12384
ammation	-12385
▁Catcher	-12386
▁Medical	-12387
▁Economic	-12388
▁remained	-12389
▁rephrase	-12390
▁diagnoses	-12391
▁mythology	-12392
▁scrambled	-12393
▁Industrial	-12394
▁enthusiasm	-12395
▁seamlessly	-12396
▁conferencing	-12397
▁probabilities	-12398
:}	-12399
678	-12400
alg	-12401
▁"0	-12402
ovid	-12403
▁tie	-12404
ademy	-12405
orcer	-12406
stock	-12407
umbre	-12408
▁Cats	-12409
▁THEN	-12410
▁Vari	-12411
imming	-12412
▁Vegan	-12413
▁dolph	-12414
▁zones	-12415
oretical	-12416
asketball	-12417
▁managers	-12418
▁workflow	-12419
▁temporary	-12420
▁Matplotlib	-12421
▁landscapes	-12422
DE	-12423
cil	-12424
▁Da	-12425
▁Hi	-12426
▁21.	-12427
▁Mid	-12428
▁Sus	-12429
▁bat	-12430
Large	-12431
bling	-12432
heres	-12433
▁100)	-12434
▁Mong	-12435
assium	-12436
▁lakes	-12437
▁mysql	-12438
Session	-12439
▁exotic	-12440
jectives	-12441
▁Prepare	-12442
▁grilled	-12443
▁riddles	-12444
▁robotic	-12445
▁Starting	-12446
▁heritage	-12447
▁pleasure	-12448
▁populous	-12449
▁Depending	-12450
▁yesterday	-12451
▁neighboring	-12452
,\	-12453
coin	-12454
olic	-12455
phib	-12456
▁0.6	-12457
▁250	-12458
▁40,	-12459
▁Gar	-12460
▁Sil	-12461
clear	-12462
incre	-12463
isely	-12464
▁Bowl	-12465
▁Dogs	-12466
▁Hold	-12467
▁lens	-12468
▁toss	-12469
carbon	-12470
▁Drive	-12471
▁bloom	-12472
▁irony	-12473
▁sixth	-12474
▁whale	-12475
▁tagger	-12476
Selector	-12477
▁Charles	-12478
▁captured	-12479
▁searched	-12480
▁elephants	-12481
▁evaluates	-12482
▁brightness	-12483
▁critically	-12484
▁impression	-12485
▁controlling	-12486
▁Independence	-12487
▁methodologies	-12488
yes	-12489
▁"3	-12490
Rows	-12491
▁Bur	-12492
▁Hen	-12493
▁Wat	-12494
Press	-12495
lings	-12496
iliary	-12497
▁buses	-12498
▁poems	-12499
▁Garden	-12500
▁Greece	-12501
▁Struct	-12502
▁deaths	-12503
▁neuron	-12504
▁rental	-12505
▁salmon	-12506
Distance	-12507
▁extends	-12508
▁modular	-12509
urability	-12510
▁Original	-12511
▁floating	-12512
▁southern	-12513
ailability	-12514
▁examining	-12515
▁rewritten	-12516
--|--------	-12517
▁capitalization	-12518
,'	-12519
job	-12520
oen	-12521
▁`-	-12522
ania	-12523
moon	-12524
▁$20	-12525
▁0.9	-12526
▁nob	-12527
▁zip	-12528
ighth	-12529
venth	-12530
▁Arch	-12531
▁buzz	-12532
arance	-12533
▁flora	-12534
▁lemma	-12535
▁stood	-12536
▁divers	-12537
building	-12538
▁centered	-12539
▁homework	-12540
▁routines	-12541
▁turbines	-12542
palindrome	-12543
▁Assistant	-12544
▁placement	-12545
▁compassion	-12546
▁imperative	-12547
▁transmitted	-12548
▁modification	-12549
=4	-12550
Bre	-12551
abs	-12552
▁6)	-12553
▁AC	-12554
Stud	-12555
ixel	-12556
osph	-12557
ugar	-12558
▁gym	-12559
▁tro	-12560
▁Mont	-12561
▁Rich	-12562
▁cock	-12563
▁groom	-12564
▁syrup	-12565
▁towns	-12566
igenous	-12567
ologist	-12568
▁Desert	-12569
▁Street	-12570
▁former	-12571
________	-12572
contents	-12573
▁Boolean	-12574
▁Utilize	-12575
▁cricket	-12576
▁jumping	-12577
▁visuals	-12578
▁voltage	-12579
▁relation	-12580
▁decreases	-12581
▁inconsist	-12582
Don	-12583
ión	-12584
grad	-12585
▁1),	-12586
▁24.	-12587
▁fan	-12588
▁sne	-12589
Train	-12590
esity	-12591
▁Gram	-12592
▁emoj	-12593
▁kern	-12594
ercury	-12595
ochond	-12596
▁React	-12597
▁motif	-12598
▁newly	-12599
▁Stream	-12600
▁announ	-12601
▁claims	-12602
▁ledger	-12603
▁skiing	-12604
ilingual	-12605
outheast	-12606
▁aquatic	-12607
▁license	-12608
▁wonders	-12609
separated	-12610
▁suddenly	-12611
▁ourselves	-12612
▁tournament	-12613
▁triangular	-12614
▁entanglement	-12615
:]	-12616
TC	-12617
0),	-12618
25.	-12619
oute	-12620
risk	-12621
▁30%	-12622
▁Fre	-12623
athon	-12624
blood	-12625
▁boss	-12626
plates	-12627
pleted	-12628
▁Along	-12629
athetic	-12630
▁Player	-12631
▁marble	-12632
Duration	-12633
▁dancing	-12634
▁pronouns	-12635
processing	-12636
▁iterations	-12637
▁breakthrough	-12638
{5	-12639
**2	-12640
Syn	-12641
anz	-12642
ias	-12643
Noun	-12644
plet	-12645
team	-12646
▁30.	-12647
Usage	-12648
emade	-12649
incer	-12650
ourse	-12651
regex	-12652
▁Most	-12653
▁geom	-12654
▁prol	-12655
asures	-12656
ophyll	-12657
verted	-12658
▁jungle	-12659
▁Capital	-12660
▁Putting	-12661
▁biology	-12662
▁diamond	-12663
▁kinetic	-12664
▁barriers	-12665
▁shuffled	-12666
▁Renewable	-12667
▁adaptable	-12668
▁chemistry	-12669
▁rewarding	-12670
▁translations	-12671
Di	-12672
{4	-12673
IND	-12674
^(1	-12675
ikz	-12676
Body	-12677
oper	-12678
pert	-12679
stra	-12680
tles	-12681
uber	-12682
▁###	-12683
▁mes	-12684
▁mph	-12685
unger	-12686
▁dram	-12687
▁wife	-12688
roduct	-12689
▁pseud	-12690
▁Family	-12691
▁debate	-12692
▁turtle	-12693
▁visits	-12694
pression	-12695
▁blanket	-12696
▁exposed	-12697
▁witness	-12698
▁geometry	-12699
▁infected	-12700
▁Nutrition	-12701
▁designated	-12702
▁installing	-12703
▁proposition	-12704
26	-12705
gn	-12706
▁"5	-12707
▁IS	-12708
laim	-12709
peas	-12710
▁"#{	-12711
▁Tem	-12712
▁aes	-12713
▁dut	-12714
▁hal	-12715
▁sta	-12716
Thank	-12717
rokes	-12718
▁Move	-12719
▁acts	-12720
▁hide	-12721
▁draft	-12722
▁fills	-12723
enities	-12724
vention	-12725
▁Expand	-12726
▁stanza	-12727
▁tuning	-12728
▁Cooking	-12729
▁Mexican	-12730
▁inquiry	-12731
▁leisure	-12732
▁placing	-12733
▁enclosed	-12734
▁matrices	-12735
▁planting	-12736
▁fractions	-12737
▁coordinate	-12738
▁institution	-12739
▁advertisement	-12740
lik	-12741
▁54	-12742
▁-1,	-12743
▁[0,	-12744
▁orb	-12745
ambic	-12746
immer	-12747
▁TEXT	-12748
sharing	-12749
▁delays	-12750
irection	-12751
▁scenery	-12752
▁friction	-12753
▁gameplay	-12754
▁revealed	-12755
▁utensils	-12756
▁complaint	-12757
▁variation	-12758
▁withstand	-12759
▁pollutants	-12760
▁inflammation	-12761
Ab	-12762
mol	-12763
pet	-12764
▁Bit	-12765
aming	-12766
▁boot	-12767
uction	-12768
▁snake	-12769
▁commas	-12770
▁forgot	-12771
▁vertex	-12772
services	-12773
template	-12774
▁absence	-12775
▁hazards	-12776
▁inhabit	-12777
▁pushing	-12778
▁sarcasm	-12779
▁Universe	-12780
▁airplane	-12781
▁scraping	-12782
▁symbolic	-12783
Annotation	-12784
▁repeatedly	-12785
▁philosophical	-12786
bye	-12787
▁Ev	-12788
▁Sup	-12789
▁Way	-12790
Incre	-12791
abeth	-12792
clean	-12793
excel	-12794
itzer	-12795
▁Json	-12796
▁chip	-12797
atomic	-12798
▁trips	-12799
▁joined	-12800
▁upload	-12801
ensation	-12802
selected	-12803
variable	-12804
▁Adjective	-12805
▁suggestion	-12806
>,	-12807
gov	-12808
rizz	-12809
predi	-12810
upper	-12811
▁0.05	-12812
▁tape	-12813
public	-12814
▁Clear	-12815
▁prove	-12816
▁theft	-12817
synonym	-12818
▁pencil	-12819
▁wisdom	-12820
▁chapter	-12821
▁mineral	-12822
▁pyramid	-12823
▁accompan	-12824
▁Foundation	-12825
▁infections	-12826
▁insulation	-12827
▁forecasting	-12828
▁correlations	-12829
Gr	-12830
00.	-12831
▁-4	-12832
▁38	-12833
▁BC	-12834
▁IF	-12835
irts	-12836
wear	-12837
▁Cub	-12838
▁NAS	-12839
▁wra	-12840
anned	-12841
icine	-12842
spark	-12843
▁ital	-12844
▁wrap	-12845
ITable	-12846
rypted	-12847
▁Hawai	-12848
▁missp	-12849
▁pengu	-12850
▁struck	-12851
▁Current	-12852
▁Reduced	-12853
▁cheaper	-12854
▁fastest	-12855
▁jewelry	-12856
▁intermed	-12857
▁mobility	-12858
▁Frequency	-12859
▁thrilling	-12860
▁simplicity	-12861
▁enthusiasts	-12862
▁underground	-12863
▁appointments	-12864
▁organizational	-12865
3;	-12866
adj	-12867
erves	-12868
▁Head	-12869
▁Lack	-12870
planet	-12871
symbol	-12872
▁Video	-12873
▁cakes	-12874
Console	-12875
ailable	-12876
iminant	-12877
▁fibers	-12878
▁carpool	-12879
▁cheetah	-12880
▁matched	-12881
▁viruses	-12882
▁beverage	-12883
▁boundary	-12884
▁distract	-12885
▁evolving	-12886
▁expanded	-12887
▁fighting	-12888
▁mnemonic	-12889
▁Financial	-12890
▁refreshing	-12891
)\	-12892
fr	-12893
___	-12894
Blue	-12895
enda	-12896
flix	-12897
yard	-12898
▁101	-12899
▁ord	-12900
fills	-12901
▁beer	-12902
design	-12903
▁delve	-12904
▁drugs	-12905
shuffle	-12906
▁School	-12907
▁shrimp	-12908
▁Habitat	-12909
olesterol	-12910
▁attached	-12911
▁integral	-12912
▁northern	-12913
▁equilibrium	-12914
▁cryptography	-12915
2/	-12916
PT	-12917
RI	-12918
)</	-12919
-1,	-12920
uté	-12921
oven	-12922
repe	-12923
▁ske	-12924
▁coal	-12925
iosity	-12926
▁chron	-12927
▁limer	-12928
vantage	-12929
▁injury	-12930
▁wheels	-12931
▁illumin	-12932
▁thermal	-12933
percentage	-12934
▁economies	-12935
▁architectural	-12936
▁investigation	-12937
▁groundbreaking	-12938
uv	-12939
Det	-12940
Hel	-12941
two	-12942
▁`"	-12943
Page	-12944
unci	-12945
▁tac	-12946
▁frog	-12947
▁roof	-12948
▁skip	-12949
ighest	-12950
pyplot	-12951
▁bands	-12952
▁peaks	-12953
▁sauté	-12954
izabeth	-12955
▁temper	-12956
pathetic	-12957
▁Thirdly	-12958
▁circles	-12959
▁streams	-12960
ITableView	-12961
▁volunteer	-12962
▁approached	-12963
▁highlighted	-12964
▁electromagnetic	-12965
.2	-12966
AV	-12967
'},	-12968
Good	-12969
Hand	-12970
Over	-12971
Tube	-12972
away	-12973
illy	-12974
oted	-12975
past	-12976
▁cuc	-12977
After	-12978
giene	-12979
holds	-12980
▁2010	-12981
▁Crit	-12982
▁Stir	-12983
▁ench	-12984
▁mild	-12985
Forest	-12986
itanic	-12987
▁hints	-12988
plicate	-12989
▁agents	-12990
▁conjug	-12991
▁defend	-12992
▁warning	-12993
▁younger	-12994
▁entering	-12995
department	-12996
▁Materials	-12997
▁September	-12998
▁targeting	-12999
▁processors	-13000
querySelector	-13001
93	-13002
Pe	-13003
"])	-13004
xis	-13005
100,	-13006
ette	-13007
tidy	-13008
▁0);	-13009
▁Mot	-13010
▁Win	-13011
▁api	-13012
▁Quick	-13013
▁cheer	-13014
▁discr	-13015
▁sorry	-13016
Example	-13017
ensitive	-13018
tunately	-13019
▁caching	-13020
▁noodles	-13021
▁victory	-13022
▁viewers	-13023
Sentences	-13024
▁midpoint	-13025
▁overhead	-13026
▁triggers	-13027
▁Wikipedia	-13028
▁evolutionary	-13029
AE	-13030
Pat	-13031
ena	-13032
▁`.	-13033
arse	-13034
arts	-13035
easy	-13036
oler	-13037
▁50.	-13038
▁Squ	-13039
▁Toy	-13040
▁[5,	-13041
▁lush	-13042
market	-13043
▁males	-13044
▁reuse	-13045
▁walks	-13046
arisons	-13047
▁Length	-13048
▁chunks	-13049
▁folder	-13050
Positive	-13051
▁decades	-13052
generated	-13053
▁nickname	-13054
▁executing	-13055
▁utilization	-13056
ua	-13057
("<	-13058
+1]	-13059
aze	-13060
opl	-13061
born	-13062
east	-13063
▁80%	-13064
▁una	-13065
exist	-13066
hours	-13067
▁<!--	-13068
▁aged	-13069
▁lent	-13070
elines	-13071
rophic	-13072
▁FALSE	-13073
▁tiger	-13074
▁toast	-13075
decimal	-13076
▁bamboo	-13077
othermal	-13078
ystopian	-13079
▁runtime	-13080
ropolitan	-13081
▁Colorado	-13082
▁lifetime	-13083
▁omelette	-13084
▁optional	-13085
▁reptiles	-13086
▁scavenger	-13087
▁spiritual	-13088
▁milestones	-13089
▁accomplished	-13090
▁categorization	-13091
/9	-13092
1}	-13093
FT	-13094
AGE	-13095
big	-13096
ikes	-13097
▁$$\	-13098
▁111	-13099
▁4.5	-13100
Month	-13101
ancer	-13102
quote	-13103
▁2018	-13104
▁Capt	-13105
▁Maps	-13106
▁Pass	-13107
▁icon	-13108
▁wand	-13109
Player	-13110
ellect	-13111
layers	-13112
▁anger	-13113
▁honor	-13114
▁zeros	-13115
Species	-13116
▁Compile	-13117
▁Measure	-13118
▁shadows	-13119
wikipedia	-13120
▁infinite	-13121
▁capturing	-13122
▁impactful	-13123
▁incomplete	-13124
▁navigating	-13125
Br	-13126
FL	-13127
RM	-13128
Sal	-13129
Sun	-13130
cin	-13131
oln	-13132
rog	-13133
▁7)	-13134
()`.	-13135
beat	-13136
▁2.0	-13137
conds	-13138
forms	-13139
▁wasn	-13140
Status	-13141
rients	-13142
▁UNION	-13143
▁fears	-13144
▁gifts	-13145
emption	-13146
healthy	-13147
keyword	-13148
writing	-13149
▁Attend	-13150
▁circul	-13151
▁depths	-13152
▁evolve	-13153
▁urgent	-13154
▁similes	-13155
▁Services	-13156
▁diagrams	-13157
▁donation	-13158
▁gestures	-13159
▁indirect	-13160
▁pointers	-13161
▁towering	-13162
▁designers	-13163
▁principal	-13164
▁loneliness	-13165
▁predefined	-13166
▁theoretical	-13167
>\	-13168
La	-13169
(5,	-13170
▁IM	-13171
[1],	-13172
zona	-13173
▁Rad	-13174
▁Sql	-13175
▁Tax	-13176
▁hem	-13177
erion	-13178
onard	-13179
quick	-13180
▁Cart	-13181
▁Cell	-13182
▁Maya	-13183
▁NASA	-13184
▁lect	-13185
itting	-13186
otions	-13187
umeric	-13188
yellow	-13189
▁Scott	-13190
▁candy	-13191
▁maple	-13192
autious	-13193
▁gallon	-13194
▁remark	-13195
▁router	-13196
▁synset	-13197
gressive	-13198
▁clicked	-13199
▁erosion	-13200
▁podcast	-13201
▁registr	-13202
▁relaxed	-13203
▁covering	-13204
▁religion	-13205
▁sculpture	-13206
▁accounting	-13207
▁dependency	-13208
▁retirement	-13209
▁substances	-13210
▁cooperation	-13211
▁fluctuations	-13212
SI	-13213
+1,	-13214
▁'{	-13215
▁TO	-13216
2020	-13217
▁Did	-13218
▁Ken	-13219
media	-13220
ometer	-13221
ostalg	-13222
▁Treat	-13223
caption	-13224
ricular	-13225
▁amazed	-13226
▁embark	-13227
▁meteor	-13228
changing	-13229
▁Netflix	-13230
▁planned	-13231
▁slogans	-13232
▁treated	-13233
▁Chatbots	-13234
▁Plugging	-13235
▁Companies	-13236
▁auxiliary	-13237
▁backwards	-13238
▁considers	-13239
▁specifying	-13240
▁adventurous	-13241
▁Preprocessing	-13242
▁interrogative	-13243
▁regularization	-13244
▁47	-13245
▁AD	-13246
Verb	-13247
gged	-13248
}{2}	-13249
alley	-13250
amine	-13251
aying	-13252
topic	-13253
▁bulb	-13254
▁intr	-13255
▁mail	-13256
▁wash	-13257
iculty	-13258
▁2020,	-13259
▁Range	-13260
▁steak	-13261
Factory	-13262
cturnal	-13263
flowers	-13264
▁Alaska	-13265
▁seeing	-13266
▁stroke	-13267
▁Located	-13268
▁concert	-13269
▁imports	-13270
▁relying	-13271
▁backward	-13272
▁compress	-13273
activities	-13274
▁affection	-13275
▁quicksort	-13276
▁spaceship	-13277
▁attributed	-13278
▁Incorporating	-13279
np	-13280
rg	-13281
Tem	-13282
Vis	-13283
`).	-13284
ito	-13285
▁2*	-13286
anna	-13287
tery	-13288
▁110	-13289
▁END	-13290
▁fut	-13291
lined	-13292
olars	-13293
techn	-13294
▁Fish	-13295
▁meta	-13296
clipse	-13297
urring	-13298
▁Label	-13299
▁album	-13300
▁enfor	-13301
▁punch	-13302
▁singer	-13303
computer	-13304
▁Studies	-13305
▁Writing	-13306
▁bicycle	-13307
▁gardens	-13308
▁obesity	-13309
▁tablets	-13310
▁writers	-13311
condition	-13312
▁failures	-13313
▁segments	-13314
▁watering	-13315
curricular	-13316
▁automatic	-13317
▁economics	-13318
▁flavorful	-13319
▁inspiring	-13320
▁societies	-13321
▁capitalized	-13322
▁impairments	-13323
▁profitability	-13324
83	-13325
▁^	-13326
▁BM	-13327
iler	-13328
▁23.	-13329
▁Arm	-13330
▁Fed	-13331
▁kid	-13332
adian	-13333
parts	-13334
utors	-13335
▁Diet	-13336
▁Join	-13337
▁sink	-13338
▁accum	-13339
▁journ	-13340
▁shops	-13341
▁spice	-13342
▁stove	-13343
▁swaps	-13344
▁umbre	-13345
history	-13346
▁Michel	-13347
▁breach	-13348
▁tackle	-13349
▁tuples	-13350
▁unders	-13351
ruptions	-13352
▁caption	-13353
▁realize	-13354
▁Transfer	-13355
▁allergies	-13356
▁completes	-13357
▁durability	-13358
▁Application	-13359
▁Identifying	-13360
QR	-13361
Dig	-13362
Gen	-13363
▁??	-13364
1000	-13365
NLTK	-13366
bole	-13367
onds	-13368
tikz	-13369
▁Hor	-13370
▁ink	-13371
▁tam	-13372
angar	-13373
annot	-13374
▁flew	-13375
▁hors	-13376
100000	-13377
incoln	-13378
scious	-13379
orphism	-13380
student	-13381
▁bitter	-13382
▁indeed	-13383
▁shifts	-13384
herlands	-13385
▁Theorem	-13386
▁trading	-13387
▁adversity	-13388
▁geography	-13389
▁histogram	-13390
▁idiomatic	-13391
▁retailers	-13392
▁creatively	-13393
▁discussions	-13394
1;	-13395
Tw	-13396
Ur	-13397
Mov	-13398
oma	-13399
▁43	-13400
▁67	-13401
AGCT	-13402
band	-13403
offs	-13404
stat	-13405
zero	-13406
▁Ann	-13407
▁inn	-13408
antha	-13409
monds	-13410
▁Ford	-13411
▁inch	-13412
▁rust	-13413
▁stops	-13414
numeric	-13415
reviews	-13416
▁orient	-13417
▁scenic	-13418
▁tablet	-13419
▁worker	-13420
▁carried	-13421
▁fingers	-13422
▁villain	-13423
▁asteroid	-13424
▁resonates	-13425
▁earthquake	-13426
▁presenting	-13427
▁displacement	-13428
AA	-13429
4",	-13430
fry	-13431
pez	-13432
▁')	-13433
▁4-	-13434
nltk	-13435
poem	-13436
▁2</	-13437
▁Bot	-13438
▁Fat	-13439
▁GCD	-13440
keras	-13441
▁WHEN	-13442
cursor	-13443
verbal	-13444
▁Church	-13445
▁abbrev	-13446
▁scared	-13447
aturally	-13448
keywords	-13449
relation	-13450
▁General	-13451
▁blender	-13452
▁corners	-13453
▁forming	-13454
▁daughter	-13455
▁entirely	-13456
▁pleasing	-13457
▁procrast	-13458
-|--------	-13459
▁constants	-13460
▁tableView	-13461
fi	-13462
sa	-13463
vy	-13464
50,	-13465
Low	-13466
POS	-13467
Sur	-13468
/100	-13469
have	-13470
▁Mel	-13471
▁sib	-13472
apply	-13473
sleep	-13474
▁caps	-13475
▁fauc	-13476
Americ	-13477
▁explo	-13478
▁toile	-13479
▁Detect	-13480
▁Native	-13481
▁Victor	-13482
▁biking	-13483
▁chased	-13484
▁tempor	-13485
▁methane	-13486
▁trouble	-13487
imination	-13488
▁desserts	-13489
▁Represent	-13490
▁expanding	-13491
▁scripting	-13492
▁thickness	-13493
ratulations	-13494
▁Sustainable	-13495
UV	-13496
'):	-13497
One	-13498
▁ST	-13499
Free	-13500
what	-13501
▁Mil	-13502
lemma	-13503
years	-13504
▁ripe	-13505
ifiers	-13506
imiter	-13507
▁Azure	-13508
▁capac	-13509
▁Better	-13510
▁Valley	-13511
▁breast	-13512
▁cookie	-13513
▁preval	-13514
▁solely	-13515
▁substr	-13516
rigation	-13517
▁YouTube	-13518
▁mansion	-13519
▁Effective	-13520
▁fibonacci	-13521
▁injection	-13522
▁reproduce	-13523
>3	-13524
Gra	-13525
]))	-13526
utf	-13527
gage	-13528
ipes	-13529
▁(4,	-13530
▁Gor	-13531
Field	-13532
idges	-13533
links	-13534
oenix	-13535
▁cros	-13536
▁huge	-13537
▁shoe	-13538
ilarity	-13539
rencies	-13540
▁Direct	-13541
▁aggreg	-13542
▁greens	-13543
▁modulo	-13544
▁revise	-13545
▁scalar	-13546
▁scrape	-13547
▁arrival	-13548
▁malware	-13549
▁telling	-13550
▁playlist	-13551
▁pressing	-13552
▁reported	-13553
▁checklist	-13554
▁interplay	-13555
▁returning	-13556
▁fulfilling	-13557
▁university	-13558
▁Declaration	-13559
▁carnivorous	-13560
Ge	-13561
(20	-13562
)",	-13563
web	-13564
▁"%	-13565
▁tap	-13566
brown	-13567
▁0.25	-13568
▁semi	-13569
Author	-13570
icians	-13571
▁cocoa	-13572
▁Martin	-13573
▁Series	-13574
Listener	-13575
▁Student	-13576
▁battles	-13577
▁neither	-13578
▁theater	-13579
▁ambiance	-13580
▁patience	-13581
▁Americans	-13582
▁conveying	-13583
▁naturally	-13584
▁Throughout	-13585
▁achievable	-13586
▁attractive	-13587
▁households	-13588
▁sufficient	-13589
▁experimental	-13590
GG	-13591
Hy	-13592
PS	-13593
dess	-13594
hist	-13595
ucch	-13596
idays	-13597
▁Road	-13598
▁Hyper	-13599
Revenue	-13600
ishment	-13601
▁Origin	-13602
▁Storage	-13603
▁subhead	-13604
▁LinkedIn	-13605
▁Visitors	-13606
▁flooding	-13607
▁limerick	-13608
▁suspense	-13609
▁Rearrange	-13610
▁excessive	-13611
▁excluding	-13612
▁templates	-13613
▁researcher	-13614
▁equilateral	-13615
▁Organization	-13616
▁CG	-13617
Mean	-13618
loss	-13619
▁-1.	-13620
▁bio	-13621
inach	-13622
paper	-13623
poons	-13624
unted	-13625
▁Hope	-13626
▁Stock	-13627
▁ended	-13628
000,000	-13629
▁Disney	-13630
▁Recipe	-13631
▁Square	-13632
▁chairs	-13633
▁simmer	-13634
▁sodium	-13635
▁trigon	-13636
▁Protein	-13637
▁pathway	-13638
▁protons	-13639
▁quizzes	-13640
▁wordnet	-13641
▁November	-13642
▁humanity	-13643
▁stemming	-13644
occupation	-13645
unctuation	-13646
▁amenities	-13647
▁intercept	-13648
▁synthesis	-13649
Annotations	-13650
▁encounters	-13651
▁association	-13652
47	-13653
]?	-13654
mo	-13655
zA	-13656
GDP	-13657
oul	-13658
▁(0	-13659
ATCG	-13660
take	-13661
week	-13662
▁1</	-13663
▁GPU	-13664
▁lst	-13665
▁yes	-13666
Sorry	-13667
dplyr	-13668
elvin	-13669
enges	-13670
grams	-13671
human	-13672
ville	-13673
▁1960	-13674
▁rays	-13675
filled	-13676
hesive	-13677
▁Liter	-13678
▁Maria	-13679
▁defer	-13680
▁delet	-13681
Process	-13682
fiction	-13683
request	-13684
▁Argent	-13685
▁Associ	-13686
▁capita	-13687
▁loaded	-13688
download	-13689
▁absorbed	-13690
▁coverage	-13691
▁criminal	-13692
▁Alexander	-13693
▁Elizabeth	-13694
▁malicious	-13695
▁procedure	-13696
▁spaghetti	-13697
▁Importance	-13698
▁collective	-13699
▁comparisons	-13700
▁representatives	-13701
TT	-13702
fa	-13703
^2.	-13704
hips	-13705
hire	-13706
idst	-13707
kins	-13708
▁paw	-13709
stant	-13710
▁Bird	-13711
▁glac	-13712
▁kick	-13713
▁pupp	-13714
▁scar	-13715
▁unic	-13716
▁'2021	-13717
▁Cross	-13718
▁Watch	-13719
phrases	-13720
▁Safety	-13721
▁Summer	-13722
▁carrot	-13723
▁hygiene	-13724
▁romance	-13725
▁vaccine	-13726
▁welcome	-13727
statement	-13728
▁rankings	-13729
▁uncommon	-13730
▁splitting	-13731
▁decreasing	-13732
▁multiplies	-13733
▁appreciated	-13734
▁assumptions	-13735
▁programmers	-13736
▁notification	-13737
MP	-13738
ek	-13739
jo	-13740
(_.	-13741
Enc	-13742
Ser	-13743
ude	-13744
urb	-13745
▁CT	-13746
Germ	-13747
Plan	-13748
exec	-13749
gray	-13750
vens	-13751
▁Ear	-13752
▁SVM	-13753
▁nor	-13754
▁oak	-13755
▁zoo	-13756
="#">	-13757
aired	-13758
ocode	-13759
lative	-13760
substr	-13761
▁Delta	-13762
▁amino	-13763
▁shelf	-13764
ynamics	-13765
▁cotton	-13766
▁crispy	-13767
▁curved	-13768
▁hotels	-13769
▁Arizona	-13770
▁Grilled	-13771
▁indoors	-13772
▁threads	-13773
▁Football	-13774
▁register	-13775
▁subarray	-13776
JavaScript	-13777
▁criterion	-13778
▁willingness	-13779
+\	-13780
48	-13781
CAT	-13782
bec	-13783
cpp	-13784
[0],	-13785
oust	-13786
▁MAX	-13787
ingle	-13788
uated	-13789
▁Down	-13790
▁lime	-13791
▁pile	-13792
▁stom	-13793
▁worn	-13794
charAt	-13795
imalay	-13796
saving	-13797
▁cloth	-13798
▁talks	-13799
Welcome	-13800
company	-13801
neutral	-13802
▁Active	-13803
▁dollar	-13804
▁police	-13805
▁Vitamin	-13806
▁publish	-13807
longitude	-13808
provoking	-13809
▁auditory	-13810
▁attendance	-13811
▁pentameter	-13812
Ed	-13813
qr	-13814
-11	-13815
BST	-13816
Log	-13817
ali	-13818
cii	-13819
nav	-13820
}</	-13821
▁Lu	-13822
oise	-13823
▁"\\	-13824
▁mim	-13825
imary	-13826
▁Past	-13827
▁Send	-13828
▁army	-13829
▁bases	-13830
▁newsp	-13831
▁prize	-13832
▁realm	-13833
Options	-13834
working	-13835
▁Server	-13836
▁rescue	-13837
▁Animals	-13838
▁bedroom	-13839
▁heavier	-13840
▁onclick	-13841
▁sunrise	-13842
▁cautious	-13843
▁determin	-13844
▁modifies	-13845
▁plastics	-13846
▁Christmas	-13847
▁automating	-13848
▁credibility	-13849
▁involvement	-13850
▁establishment	-13851
2(	-13852
▁ip	-13853
oral	-13854
orea	-13855
▁TPU	-13856
Dense	-13857
swith	-13858
ushes	-13859
▁Cold	-13860
▁coun	-13861
▁para	-13862
digits	-13863
ibrary	-13864
orphic	-13865
vowels	-13866
▁(1/2)	-13867
▁Flask	-13868
▁minus	-13869
▁shark	-13870
▁spoke	-13871
Service	-13872
ucchini	-13873
▁Studio	-13874
▁Target	-13875
▁makeup	-13876
incerely	-13877
pressure	-13878
▁Complex	-13879
▁Strateg	-13880
▁Behavior	-13881
▁Strategy	-13882
▁informal	-13883
▁regarded	-13884
▁outlining	-13885
▁Predictive	-13886
▁Traditional	-13887
▁UITableView	-13888
▁inheritance	-13889
▁promotional	-13890
▁anticipation	-13891
▁communicating	-13892
.).	-13893
AND	-13894
Dep	-13895
uns	-13896
']['	-13897
emony	-13898
getic	-13899
▁Rice	-13900
▁Term	-13901
Factor	-13902
angled	-13903
esteem	-13904
▁Navig	-13905
▁semic	-13906
ocating	-13907
▁Consum	-13908
▁relies	-13909
accuracy	-13910
bability	-13911
▁Alright	-13912
▁Distrib	-13913
▁Lincoln	-13914
▁pursuit	-13915
▁Continue	-13916
▁Analyzing	-13917
▁intellect	-13918
▁syntactic	-13919
▁palindromic	-13920
▁recognizing	-13921
▁demonstrated	-13922
▁summarization	-13923
Bar	-13924
Mar	-13925
iwi	-13926
▁46	-13927
atom	-13928
▁Sud	-13929
Stack	-13930
ifest	-13931
inity	-13932
ocean	-13933
opper	-13934
▁mand	-13935
▁padd	-13936
▁sums	-13937
redded	-13938
▁Peace	-13939
▁haven	-13940
▁moons	-13941
Default	-13942
ository	-13943
ulatory	-13944
▁Albert	-13945
▁Cheese	-13946
▁Coffee	-13947
▁Gender	-13948
▁Things	-13949
▁perman	-13950
▁steady	-13951
▁variet	-13952
▁worksh	-13953
Negative	-13954
ificance	-13955
▁Jackson	-13956
▁Liberty	-13957
▁acceler	-13958
▁booking	-13959
▁cleaned	-13960
▁tickets	-13961
▁weapons	-13962
paragraph	-13963
substring	-13964
▁Negative	-13965
▁Response	-13966
▁membrane	-13967
osynthesis	-13968
▁corporate	-13969
▁universal	-13970
▁sandwiches	-13971
▁strengthen	-13972
▁constructed	-13973
▁≈	-13974
Lab	-13975
hex	-13976
▁$8	-13977
▁4;	-13978
▁56	-13979
gium	-13980
▁25%	-13981
▁3.5	-13982
▁Coc	-13983
▁gap	-13984
World	-13985
abled	-13986
emies	-13987
utely	-13988
▁Pick	-13989
▁asyn	-13990
growth	-13991
imated	-13992
▁Fresh	-13993
▁deleg	-13994
▁peers	-13995
▁scans	-13996
▁sushi	-13997
▁lambda	-13998
▁scenes	-13999
▁timing	-14000
gradable	-14001
original	-14002
▁Weather	-14003
▁deserts	-14004
▁lexicon	-14005
▁uniform	-14006
directory	-14007
▁homemade	-14008
▁allocated	-14009
propagation	-14010
▁currencies	-14011
▁complicated	-14012
▁standardized	-14013
▁StringBuilder	-14014
PR	-14015
ga	-14016
xyz	-14017
▁'\	-14018
[0];	-14019
▁Ill	-14020
Email	-14021
clide	-14022
paced	-14023
▁DATE	-14024
Speech	-14025
▁Again	-14026
▁Hydro	-14027
▁Paper	-14028
▁Venus	-14029
▁appet	-14030
▁await	-14031
▁lungs	-14032
industr	-14033
▁antibi	-14034
▁terror	-14035
▁Ancient	-14036
▁awarded	-14037
resistant	-14038
▁equality	-14039
▁exhibits	-14040
▁musician	-14041
▁override	-14042
▁tourists	-14043
▁algebraic	-14044
▁metabolic	-14045
▁scheduled	-14046
|------------|	-14047
▁prepositional	-14048
▁cryptocurrency	-14049
?.	-14050
Ass	-14051
Que	-14052
itt	-14053
wat	-14054
Mult	-14055
relu	-14056
▁Blu	-14057
▁Had	-14058
▁ion	-14059
ashes	-14060
peror	-14061
▁(199	-14062
▁CURL	-14063
▁trib	-14064
recomm	-14065
▁Style	-14066
▁Words	-14067
alities	-14068
ampling	-14069
aturday	-14070
clidean	-14071
layered	-14072
▁Virgin	-14073
▁beings	-14074
▁iambic	-14075
▁temple	-14076
▁trials	-14077
optional	-14078
▁Running	-14079
▁Summary	-14080
▁females	-14081
▁scratch	-14082
clamation	-14083
Percentage	-14084
▁Amendment	-14085
▁destroyed	-14086
▁mutations	-14087
▁Activities	-14088
▁invitation	-14089
▁substrings	-14090
▁accompanied	-14091
CoreAnnotations	-14092
,$	-14093
>&	-14094
Sk	-14095
Pad	-14096
UTF	-14097
Vow	-14098
cmp	-14099
▁"/	-14100
▁$_	-14101
▁CA	-14102
▁os	-14103
bris	-14104
isen	-14105
▁Ros	-14106
▁XYZ	-14107
brand	-14108
itles	-14109
rowth	-14110
stick	-14111
throp	-14112
▁Gate	-14113
▁Yoga	-14114
▁cows	-14115
▁hues	-14116
▁obsc	-14117
Buffer	-14118
client	-14119
footer	-14120
osomes	-14121
▁Birds	-14122
▁Louis	-14123
▁Sweet	-14124
▁forth	-14125
▁shock	-14126
▁trunk	-14127
▁worst	-14128
▁Humans	-14129
▁Planet	-14130
▁bucket	-14131
▁ranked	-14132
▁speaks	-14133
polarity	-14134
prietary	-14135
▁Account	-14136
▁Players	-14137
▁exceeds	-14138
▁prosper	-14139
▁pronunci	-14140
▁soothing	-14141
▁abandoned	-14142
▁homophone	-14143
▁illnesses	-14144
▁teaspoons	-14145
▁priorities	-14146
▁inconvenience	-14147
▁participating	-14148
){	-14149
pad	-14150
pin	-14151
sol	-14152
▁'<	-14153
▁(9	-14154
▁NS	-14155
Here	-14156
note	-14157
▁1",	-14158
▁29.	-14159
▁Ter	-14160
▁gly	-14161
alyst	-14162
▁Adam	-14163
▁Body	-14164
▁Scal	-14165
▁tune	-14166
Impact	-14167
acious	-14168
atever	-14169
pezoid	-14170
uesday	-14171
▁congr	-14172
▁reset	-14173
ermined	-14174
▁Launch	-14175
▁Turing	-14176
▁clever	-14177
▁storms	-14178
▁throws	-14179
ToString	-14180
▁marathon	-14181
▁violence	-14182
▁Selection	-14183
▁waterfall	-14184
▁blueberries	-14185
3",	-14186
Use	-14187
▁5]	-14188
bone	-14189
▁26,	-14190
▁lie	-14191
▁rod	-14192
▁Used	-14193
▁View	-14194
▁puns	-14195
ersion	-14196
▁Allow	-14197
▁Below	-14198
▁cache	-14199
▁comic	-14200
▁fairy	-14201
▁fence	-14202
▁kinds	-14203
▁surge	-14204
▁Center	-14205
▁apolog	-14206
▁debris	-14207
▁motifs	-14208
▁sorcer	-14209
▁sought	-14210
▁sprint	-14211
Activity	-14212
▁descent	-14213
▁manages	-14214
renewable	-14215
▁Congress	-14216
▁aircraft	-14217
▁prospect	-14218
▁dystopian	-14219
▁irrigation	-14220
▁maintained	-14221
▁participant	-14222
Ob	-14223
'};	-14224
("\	-14225
101	-14226
111	-14227
5</	-14228
▁39	-14229
[1])	-14230
dish	-14231
eded	-14232
imon	-14233
▁190	-14234
▁600	-14235
▁Hey	-14236
audio	-14237
small	-14238
▁Jeff	-14239
▁Nile	-14240
▁vess	-14241
hering	-14242
▁Covid	-14243
▁Dream	-14244
▁burst	-14245
▁clubs	-14246
▁coach	-14247
Command	-14248
▁Budget	-14249
▁Medium	-14250
▁buffer	-14251
▁burned	-14252
▁scikit	-14253
▁turbine	-14254
▁Database	-14255
▁finances	-14256
▁attitudes	-14257
▁incidents	-14258
▁offerings	-14259
odegradable	-14260
▁prevention	-14261
▁translates	-14262
▁feasibility	-14263
▁transported	-14264
▁connotations	-14265
(/	-14266
10)	-14267
male	-14268
▁22.	-14269
hicle	-14270
▁Mess	-14271
Effect	-14272
themed	-14273
ylabel	-14274
▁Voice	-14275
▁Whisk	-14276
▁cents	-14277
avering	-14278
▁Travel	-14279
▁kernel	-14280
▁writes	-14281
Employee	-14282
analysis	-14283
▁joining	-14284
▁penalty	-14285
ochondria	-14286
▁chirping	-14287
▁colonies	-14288
▁mutation	-14289
▁suspects	-14290
expression	-14291
▁biometric	-14292
▁microwave	-14293
▁resilient	-14294
▁discounted	-14295
▁randomized	-14296
▁fulfillment	-14297
▁appropriately	-14298
▁accommodations	-14299
▁":	-14300
bell	-14301
road	-14302
▁$15	-14303
▁1.2	-14304
▁Las	-14305
odium	-14306
serif	-14307
▁dens	-14308
▁elig	-14309
▁seas	-14310
events	-14311
reader	-14312
volume	-14313
▁Korea	-14314
▁joins	-14315
▁rocky	-14316
▁upgra	-14317
jection	-14318
▁Author	-14319
▁OpenCV	-14320
▁Robots	-14321
▁salads	-14322
▁burnout	-14323
▁entropy	-14324
▁teaches	-14325
intensity	-14326
▁festivals	-14327
▁intention	-14328
▁territory	-14329
▁Percentage	-14330
▁Regression	-14331
▁indigenous	-14332
▁remarkable	-14333
▁Flexibility	-14334
▁tranquility	-14335
▁VP	-14336
Rank	-14337
▁$2,	-14338
▁bub	-14339
▁kne	-14340
slice	-14341
▁Budd	-14342
▁surg	-14343
▁Award	-14344
▁Henry	-14345
▁Short	-14346
▁Sound	-14347
▁juicy	-14348
fection	-14349
sgiving	-14350
▁Modern	-14351
▁devise	-14352
▁myself	-14353
▁ylabel	-14354
Instance	-14355
ollution	-14356
students	-14357
▁Encoura	-14358
▁Olympic	-14359
▁abundant	-14360
▁although	-14361
▁believes	-14362
▁ordering	-14363
▁recharge	-14364
▁budgeting	-14365
▁actionable	-14366
▁structural	-14367
▁illustrates	-14368
▁medications	-14369
▁Thanksgiving	-14370
▁quantitative	-14371
${	-14372
IV	-14373
idf	-14374
oda	-14375
pip	-14376
}{|	-14377
▁99	-14378
!");	-14379
Find	-14380
Rect	-14381
grab	-14382
iffs	-14383
uset	-14384
▁"")	-14385
▁90,	-14386
▁Mem	-14387
▁Occ	-14388
optim	-14389
▁Eggs	-14390
▁heli	-14391
▁pars	-14392
▁soap	-14393
onardo	-14394
▁crisp	-14395
▁hover	-14396
Factors	-14397
develop	-14398
▁chorus	-14399
▁heated	-14400
▁strand	-14401
Password	-14402
Quantity	-14403
▁Rowling	-14404
▁defense	-14405
▁flowing	-14406
▁premium	-14407
▁volcano	-14408
▁assembly	-14409
▁ceremony	-14410
▁defeated	-14411
▁depicted	-14412
▁concerned	-14413
▁reporting	-14414
fortunately	-14415
▁Prioritize	-14416
3_	-14417
(10)	-14418
fits	-14419
prec	-14420
rama	-14421
▁(5,	-14422
▁\[\	-14423
▁une	-14424
Power	-14425
riage	-14426
scape	-14427
▁5000	-14428
▁Paul	-14429
▁memo	-14430
▁rhet	-14431
circle	-14432
▁Adobe	-14433
▁agile	-14434
▁cumul	-14435
▁loans	-14436
olutely	-14437
squared	-14438
▁lemmat	-14439
▁sizeof	-14440
▁slides	-14441
▁Himalay	-14442
▁founder	-14443
▁brackets	-14444
▁resolved	-14445
▁confirmed	-14446
▁precisely	-14447
▁proactive	-14448
▁Individual	-14449
▁introduces	-14450
▁regulating	-14451
▁Translation	-14452
LS	-14453
[4	-14454
++.	-14455
Pan	-14456
gic	-14457
)));	-14458
kind	-14459
nest	-14460
rock	-14461
▁Die	-14462
▁Eth	-14463
▁IBM	-14464
▁Pra	-14465
▁0..<	-14466
▁Copy	-14467
▁jars	-14468
isease	-14469
▁"2022	-14470
▁Dutch	-14471
▁Graph	-14472
▁coral	-14473
project	-14474
ularity	-14475
▁rotate	-14476
▁sister	-14477
datetime	-14478
ologists	-14479
▁clarify	-14480
▁enemies	-14481
▁raining	-14482
inclusive	-14483
itzerland	-14484
▁Tomatoes	-14485
▁dropdown	-14486
▁missions	-14487
Vectorizer	-14488
▁colleague	-14489
▁curiosity	-14490
▁offspring	-14491
▁trapezoid	-14492
▁Comparison	-14493
▁cholesterol	-14494
▁prioritizing	-14495
0}	-14496
Po	-14497
eu	-14498
Cor	-14499
dam	-14500
▁'-	-14501
▁Dim	-14502
WHERE	-14503
akery	-14504
diers	-14505
▁Host	-14506
▁nurs	-14507
apples	-14508
versed	-14509
▁2021.	-14510
▁traum	-14511
Correct	-14512
▁Kelvin	-14513
▁agency	-14514
▁copies	-14515
▁toothp	-14516
Question	-14517
novation	-14518
▁Website	-14519
▁enabled	-14520
▁gallery	-14521
ordinates	-14522
▁Industry	-14523
▁compiled	-14524
▁embedded	-14525
▁newfound	-14526
▁soldiers	-14527
▁wearable	-14528
▁Christian	-14529
▁hurricane	-14530
▁logistics	-14531
▁exceptions	-14532
▁hurricanes	-14533
▁systematic	-14534
▁partnerships	-14535
▁manufacturers	-14536
▁Classification	-14537
""	-14538
UN	-14539
ju	-14540
Arr	-14541
MAX	-14542
▁Ur	-14543
roat	-14544
▁Dom	-14545
achin	-14546
tasks	-14547
▁Camp	-14548
▁Care	-14549
▁Risk	-14550
Points	-14551
onomic	-14552
▁10000	-14553
▁Phone	-14554
▁Years	-14555
▁argue	-14556
▁bloss	-14557
▁decom	-14558
▁gains	-14559
▁keras	-14560
▁legis	-14561
▁yeast	-14562
density	-14563
ialogue	-14564
▁Hawaii	-14565
▁crunch	-14566
▁cycles	-14567
▁estate	-14568
▁harmon	-14569
▁italic	-14570
▁solves	-14571
▁underg	-14572
elements	-14573
▁freshly	-14574
▁pursuing	-14575
▁setbacks	-14576
▁Developer	-14577
▁departure	-14578
▁scattered	-14579
▁originally	-14580
▁Netherlands	-14581
▁civilizations	-14582
(12	-14583
oku	-14584
▁79	-14585
Join	-14586
Male	-14587
gons	-14588
prom	-14589
▁360	-14590
▁caf	-14591
▁{1,	-14592
Check	-14593
aylor	-14594
▁sans	-14595
ritten	-14596
▁Asian	-14597
▁Shape	-14598
▁eigen	-14599
▁fever	-14600
▁merch	-14601
▁rainy	-14602
CoreNLP	-14603
balance	-14604
ilantro	-14605
▁enzyme	-14606
▁jumped	-14607
▁organs	-14608
includes	-14609
▁Improve	-14610
▁Systems	-14611
▁parsley	-14612
▁spelled	-14613
▁topping	-14614
LowerCase	-14615
▁featured	-14616
▁fleeting	-14617
▁indexing	-14618
▁Regularly	-14619
▁apartment	-14620
▁balancing	-14621
▁personnel	-14622
▁textbooks	-14623
▁Generating	-14624
▁appointment	-14625
▁adaptability	-14626
Rew	-14627
Tom	-14628
igu	-14629
ims	-14630
ipt	-14631
▁3]	-14632
▁je	-14633
>");	-14634
[1].	-14635
amel	-14636
home	-14637
john	-14638
quet	-14639
▁32,	-14640
South	-14641
Where	-14642
empty	-14643
opard	-14644
plets	-14645
sters	-14646
works	-14647
▁0.5,	-14648
▁Tool	-14649
Header	-14650
Matrix	-14651
arters	-14652
driver	-14653
movies	-14654
▁owned	-14655
Context	-14656
forEach	-14657
imation	-14658
picture	-14659
present	-14660
▁Arabic	-14661
feedback	-14662
▁adopted	-14663
▁chooses	-14664
▁nostalg	-14665
▁	-14666
e	-14667
t	-14668
a	-14669
n	-14670
s	-14671
i	-14672
o	-14673
r	-14674
h	-14675
l	-14676
d	-14677
c	-14678
u	-14679
m	-14680
p	-14681
g	-14682
f	-14683
y	-14684
w	-14685
.	-14686
b	-14687
v	-14688
,	-14689
k	-14690
I	-14691
"	-14692
T	-14693
:	-14694
-	-14695
A	-14696
x	-14697
)	-14698
L	-14699
(	-14700
S	-14701
`	-14702
U	-14703
1	-14704
q	-14705
0	-14706
'	-14707
C	-14708
2	-14709
=	-14710
M	-14711
P	-14712
E	-14713
Y	-14714
z	-14715
_	-14716
H	-14717
/	-14718
W	-14719
j	-14720
3	-14721
|	-14722
<	-14723
5	-14724
F	-14725
D	-14726
>	-14727
;	-14728
R	-14729
O	-14730
B	-14731
N	-14732
4	-14733
G	-14734
{	-14735
}	-14736
?	-14737
[	-14738
]	-14739
+	-14740
6	-14741
$	-14742
8	-14743
\	-14744
J	-14745
9	-14746
7	-14747
#	-14748
V	-14749
*	-14750
!	-14751
%	-14752
K	-14753
Q	-14754
^	-14755
X	-14756
’	-14757
&	-14758
Z	-14759
@	-14760
°	-14761
é	-14762
π	-14763
“	-14764
”	-14765
~	-14766
√	-14767
ó	-14768
×	-14769
÷	-14770
á	-14771
í	-14772
–	-14773
±	-14774
ñ	-14775
θ	-14776
è	-14777
Δ	-14778
≈	-14779
à	-14780
→	-14781
️	-14782
‘	-14783
Σ	-14784
•	-14785
∂	-14786
—	-14787
£	-14788
ú	-14789
β	-14790
μ	-14791
δ	-14792
ç	-14793
λ	-14794
ö	-14795
≤	-14796
ü	-14797
∠	-14798
ä	-14799
█	-14800
σ	-14801
к	-14802
∑	-14803
≥	-14804
ê	-14805
ô	-14806
¿	-14807
о	-14808
€	-14809
⁄	-14810
≡	-14811
â	-14812
⌊	-14813
⌋	-14814
ɪ	-14815
的	-14816
⋆	-14817
。	-14818
我	-14819
æ	-14820
е	-14821
✓	-14822
∫	-14823
ρ	-14824
‍	-14825
É	-14826
α	-14827
−	-14828
и	-14829
¡	-14830
φ	-14831
═	-14832
✔	-14833
の	-14834
ə	-14835
а	-14836
ا	-14837
に	-14838
们	-14839
∨	-14840
は	-14841
ì	-14842
ã	-14843
ù	-14844
ǎ	-14845
с	-14846
─	-14847
い	-14848
🤝	-14849
ˈ	-14850
н	-14851
ي	-14852
·	-14853
ā	-14854
∧	-14855
、	-14856
す	-14857
ī	-14858
∞	-14859
一	-14860
û	-14861
ل	-14862
∈	-14863
ん	-14864
⟩	-14865
ー	-14866
Ê	-14867
⊙	-14868
日	-14869
ε	-14870
ш	-14871
م	-14872
⋯	-14873
♦	-14874
❌	-14875
ち	-14876
ō	-14877
ɛ	-14878
∩	-14879
と	-14880
を	-14881
た	-14882
で	-14883
ス	-14884
︎	-14885
🌍	-14886
Æ	-14887
È	-14888
ǐ	-14889
л	-14890
∇	-14891
か	-14892
こ	-14893
な	-14894
在	-14895
œ	-14896
ː	-14897
ω	-14898
↓	-14899
©	-14900
[...]
